[PAD]
[UNK]
[CLS]
[SEP]
[MASK]
!
"
#
$
%
&
'
(
)
*
+
,
-
.
/
0
1
2
3
4
5
6
7
8
9
:
;
<
=
>
?
@
A
B
C
D
E
F
G
H
I
J
K
L
M
N
O
P
Q
R
S
T
U
V
W
X
Y
Z
[
\
]
^
_
`
a
b
c
d
e
f
g
h
i
j
k
l
m
n
o
p
q
r
s
t
u
v
w
x
y
z
{
|
}
~
¡
¢
£
¤
¥
¦
§
¨
©
ª
«
¬
®
°
±
²
³
´
µ
¶
·
¸
¹
º
»
¼
½
¾
¿
À
Á
Â
Ã
Ä
Å
Æ
Ç
È
É
Ê
Ë
Ì
Í
Î
Ï
Ð
Ñ
Ò
Ó
Ô
Õ
Ö
×
Ø
Ù
Ú
Û
Ü
Ý
Þ
ß
à
á
â
ã
ä
å
æ
ç
è
é
ê
ë
ì
í
î
ï
ð
ñ
ò
ó
ô
õ
ö
÷
ø
ù
ú
û
ü
ý
þ
ÿ
Ā
ā
Ă
ă
Ą
ą
Ć
ć
Ċ
ċ
Č
č
Ď
ď
Ē
ē
Ĕ
Ė
ė
Ę
ę
Ě
ě
Ğ
ğ
Ġ
ġ
Ģ
ģ
Ĥ
Ħ
ħ
Ī
ī
Į
į
İ
ı
Ĳ
ĳ
Ķ
ķ
ĺ
Ļ
ļ
Ľ
ľ
Ł
ł
Ń
ń
Ņ
ņ
Ň
ň
ō
ŏ
Ő
ő
Œ
œ
ŕ
Ř
ř
Ś
ś
Ş
ş
Š
š
Ţ
ţ
Ť
ť
Ū
ū
Ů
ů
Ű
ű
Ų
ų
Ÿ
Ź
ź
Ż
ż
Ž
ž
ƒ
ǿ
ȍ
Ș
ș
ț
ˆ
˙
˚
˜
΄
Ά
·
Έ
Ή
Ί
Ό
Ύ
ΐ
Α
Β
Γ
Δ
Ε
Ζ
Η
Θ
Ι
Κ
Λ
Μ
Ν
Ξ
Ο
Π
Ρ
Σ
Τ
Υ
Φ
Χ
Ψ
Ω
Ϊ
ά
έ
ή
ί
α
β
γ
δ
ε
ζ
η
θ
ι
κ
λ
μ
ν
ξ
ο
π
ρ
ς
σ
τ
υ
φ
χ
ψ
ω
ϊ
ϋ
ό
ύ
ώ
Є
І
Ў
А
Б
В
Г
Д
Е
Ж
З
И
Й
К
Л
М
Н
О
П
Р
С
Т
У
Ф
Х
Ц
Ч
Ш
Щ
Ъ
Ы
Ь
Ю
Я
а
б
в
г
д
е
ж
з
и
й
к
л
м
н
о
п
р
с
т
у
ф
х
ц
ч
ш
щ
ъ
ы
ь
э
ю
я
ё
і
ї
ј
љ
њ
ў
џ
ә
أ
إ
ا
ب
ة
ت
ث
ج
ح
خ
د
ذ
ر
ز
س
ش
ص
ع
ف
ق
ك
ل
م
ن
ه
و
ى
ي
ٱ
ڤ
ं
മ
ጀ
᐀
ᘀ
‐
‑
–
—
―
‘
’
‚
“
”
„
†
‡
•
…
‰
‱
′
″
‴
‵
‷
‹
›
‾
⁃
⁌
⁏
⁥
⁲
⁳
⁸
⁹
€
₰
№
™
→
↓
↗
↘
∆
∏
∑
−
√
∞
∫
≃
≈
≠
≡
≤
≥
≼
⎜
⎝
⎡
⎢
⎪
─
■
□
▪
▬
◘
★
♣
⠠
⡃
⡍
⥅
Ⱞ
ⰱ
ⰴ
ⰹ
ⱝ
Ɐ
ⴠ
⸩
⸮
⸱
⸲
⸴
⸷
⹝
⹥
⹬
⹰
⹳
⹸
〠
〮
〰
〱
〲
〳
ㄠ
ㄮ
㄰
ㄶ
㈠
㈮
㈯
㈱
㌠
㌱
㌲
㐠
㐩
㐰
㐸
㔰
㔱
㔳
㘠
㘮
㘱
㜮
㜱
㜴
㠩
㠱
㠲
㠳
㠴
㠷
㠹
㤮
㤳
㤹
㭮
㲤
䌉
䌠
䌨
䐉
䐠
䕓
䜉
䰠
佃
佄
倠
删
嬠
嶅
愠
慣
慦
慧
慨
慩
慬
慮
慰
慲
挠
捡
捣
捥
捩
据
捯
捵
揭
搠
摡
摥
摩
摮
摯
攠
敇
敒
敤
敩
敬
敭
敮
敳
整
映
晉
晥
晩
来
档
椠
楣
楤
楦
業
楮
楳
楴
極
橥
氠
污
汣
汥
汧
汵
洠
浡
浩
浯
渠
湥
湩
湯
湵
滳
潃
潣
潤
潥
潪
潬
潮
潰
潲
潴
瀀
瀠
灡
灯
牡
牯
牰
牲
牴
牵
獁
獡
獥
獩
獬
獮
獯
瑬
瑮
瑯
瑲
瓭
畣
略
番
畬
畭
畱
畴
痌
痍
痭
瘗
癧
砠
硸
礠
蕛
ꂰ
蘒
##o
##t
##i
##f
##c
##á
##n
##d
##s
##e
##l
##a
##y
##z
##u
##r
##A
##C
##I
##O
##N
##L
##H
##m
##b
##g
##é
##Z
##p
##ą
##x
##0
##h
##W
##6
##E
##4
##2
##9
##1
##v
##ó
##5
##8
##3
##j
##7
##k
##å
##ä
##B
##T
##R
##ö
##w
##q
##π
##ο
##κ
##α
##τ
##ά
##σ
##η
##μ
##ù
##G
##S
##ρ
##ε
##ζ
##ι
##ύ
##Q
##M
##υ
##λ
##ν
##ό
##ς
##D
##P
##í
##ω
##ħ
##K
##ý
##V
##ø
##U
##X
##Y
##ľ
##Ñ
##β
##ή
##F
##ú
##ñ
##Í
##ī
##δ
##ί
##έ
##ü
##č
##р
##е
##ф
##н
##ц
##и
##а
##л
##ï
##ë
##õ
##Ó
##ę
##γ
##φ
##Ā
##J
##è
##θ
##ώ
##æ
##î
##ż
##ł
##°
##ě
##ř
##Č
##Á
##ž
##ė
##à
##š
##€
##ê
##ç
##ô
##â
##Ý
##É
##Ô
##ā
##−
##º
##ń
##χ
##ã
##ì
##ß
##±
##Ü
##Š
##Ķ
##ś
##з
##д
##ð
##÷
##Œ
##ū
##ļ
##û
##Æ
##Ä
##Å
##ò
##ő
##ň
##Ń
##Ê
##Τ
##Þ
##¹
##ċ
##ξ
##Ε
##Ω
##Ρ
##Γ
##Ι
##Κ
##Ν
##ª
##Ξ
##Α
##Χ
##Θ
##Õ
##ē
##ť
##в
##о
##п
##ů
##т
##м
##Λ
##Δ
##ų
##ϊ
##ű
##¾
##Ο
##Ό
##Υ
##×
##с
##Ö
##Ð
##Ζ
##Σ
##Ħ
##ć
##⎪
##Ø
##ņ
##Η
##О
##С
##Т
##Я
##Н
##ź
##´
##Π
##▬
##Ú
##©
##²
##ψ
##ж
##þ
##į
##ь
##к
##ў
##È
##Ă
##Ù
##Ç
##ġ
##ĺ
##®
##ț
##Ã
##Ï
##Ì
##∏
##Μ
##Ž
##Е
##М
##Й
##г
##й
##À
##у
##≤
##Φ
##ģ
##Ņ
##б
##ъ
##ч
##У
##Б
##И
##В
##¥
##¨
##І
##Ч
##я
##ÿ
##ķ
##œ
##ل
##م
##ت
##ы
##і
##Β
##Ί
##瀠
##ㄮ
##敒
##汧
##浡
##湥
##潴
##洠
##摯
##晩
##捩
##摡
##蘒
##瑬
##浩
##畬
##慧
##⁲
##潰
##汥
##删
##来
##慬
##敭
##瑮
##䌨
##⥅
##渠
##ꂰ
##㤳
##㈯
##ș
##ƒ
##Ć
##Ļ
##Ģ
##Ň
##Ź
##Ċ
##Ť
##ΐ
##Ő
##Ī
##ё
##Ě
##∫
##х
##А
##㐠
##㜮
##㈮
##ı
##Ą
##њ
##Ł
##Ū
##Ė
##ō
##Ľ
##Ë
##Î
##∞
##µ
##Â
##ğ
##↓
##¤
##ă
##ю
##¼
##˚
##ş
##ϋ
##≥
##΄
##ţ
##ا
##ح
##ق
##ď
##ي
##ш
##ĳ
##Х
##Р
##К
##¸
##З
##щ
##Г
##ј
##İ
##Ğ
##Ò
##√
##ر
##ك
##Ű
##ŕ
##Ϊ
##Д
##Ь
##Л
##½
##ف
##ة
##³
##س
##خ
##™
##牯
##攠
##畱
##⁥
##敳
##搠
##晥
##湩
##氠
##獡
##摥
##摩
##捥
##獥
##牡
##慩
##⁳
##慰
##慲
##牰
##瑯
##楣
##滳
##牵
##潣
##慦
##獬
##捡
##㭮
##礠
##䐠
##Ę
##ص
##Ś
##Û
##Ř
##㌠
##Ē
##≠
##Ż
##灯
##潥
##ⴠ
##倠
##潲
##整
##捣
##敤
##略
##䰠
##捵
##慨
##挠
##湯
##牴
##映
##污
##楳
##楦
##慣
##佃
##⡍
##㠹
##£
##潃
##獮
##橥
##Ɐ
##䐉
##ذ
##ه
##و
##ث
##э
##أ
##ن
##Ů
##䌠
##浯
##獩
##〲
##㐰
##㐩
##㤹
##മ
##ं
##畭
##楮
##㠩
##痌
##џ
##Έ
##䌉
##楤
##潮
##捯
##潤
##⹳
##ȍ
##䜉
##椠
##据
##獯
##灡
##瓭
##汵
##硸
##〮
##⎝
##Ų
##ⰱ
##₰
##㌱
##Ц
##䕓
##⡃
##∑
##П
##Ġ
##㔰
##ŏ
##瀀
##ጀ
##㲤
##د
##ٱ
##㠲
##番
##㈠
##ǿ
##Ύ
##ج
##إ
##ز
##ә
##Ы
##љ
##Ĕ
##¦
##㠳
##Ж
##Ď
##Щ
##Ĳ
##ᘀ
##Ĥ
##晉
##Ш
##¬
##Ţ
##Ά
##Ș
##ⱝ
##嬠
##嶅
##⹰
##佄
##ㄠ
##㐸
##㜱
##ⰹ
##㌲
##㠴
##㘱
##㤮
##慮
##⹬
##ى
##Į
##ї
##˙
##㠷
##〳
##㘮
##ش
##¢
##档
##Ÿ
##業
##⠠
##㘠
##〱
##畴
##潬
##砠
##⹸
##牲
##摮
##敩
##愠
##⁸
##㄰
##楴
##汣
##極
##瑲
##揭
##〠
##蕛
##⹝
##Ş
##潪
##獁
##湵
##敇
##敮
##敬
##Ў
##Ъ
##㔱
##⹥
##畣
##ع
de
##os
##ci
##es
##en
##as
##er
##on
##ar
##ad
##or
la
##ón
##ti
##ent
en
##an
##al
##ción
el
##ro
##st
##ic
##ue
##id
con
##ec
##om
##ación
los
del
que
##in
##is
in
las
se
##re
##ul
##00
##am
##ado
##cion
un
re
par
##to
##di
pro
##ente
##un
##em
##ra
com
##do
##it
su
##cul
##tiv
##bl
##idad
##res
##ento
##te
##ados
por
##ciones
##ter
##ión
ap
est
200
al
##ir
##tu
##ol
##ari
##ícul
##ig
no
Com
para
##eg
##im
##orm
##rt
##tos
##ta
##rtícul
##ist
ex
##pe
##fic
##du
##se
##mp
cu
##ales
##rtículo
##ici
##iz
##tor
##ed
##il
es
ac
##án
##ada
##tr
##lam
una
##emb
##ur
an
CE
pres
##cia
Est
##lamento
##lo
##la
##od
##duc
##abl
Reg
per
19
##qu
des
##isión
##tado
Con
artículo
Reglamento
##form
res
##iemb
##adas
cons
##lic
dis
##el
##bre
cont
##ues
##da
##ia
pre
##entes
##um
miemb
##io
so
produc
deb
Comisión
##ran
##uro
##edi
pr
##ab
##per
##iento
##ía
##tiva
El
##ante
ser
##tic
##encia
##ac
##osi
aplic
##ará
imp
##irec
lo
##aciones
apar
##tes
##ech
##cl
##jo
##ros
##ier
##iv
##ando
##por
##ex
##urope
au
disp
##ion
##ido
##min
parti
comp
inter
##ica
La
sobre
presente
##tin
apartado
##uer
##ten
ob
ma
##eci
199
##us
##idas
as
or
##fer
##ás
mo
##gr
##erc
fin
como
establ
Estados
##et
##ario
10
miembros
##amente
##titu
##fec
Europe
##ero
En
pa
##idades
Artículo
##ores
Direc
ha
##je
##ib
##arse
sus
##tivo
##igu
ad
Comun
##entos
##ep
proc
##fici
##til
##tre
##ien
##ís
##rans
##pec
##sejo
##ip
12
##ider
##rol
impor
Consejo
autor
##sión
inform
med
##ru
trans
##ism
##dad
DE
DO
dic
##esti
seg
##le
rec
##ida
##cial
cas
ca
##ización
Directiva
##tación
##gan
##tific
##arios
comun
reg
##de
##bi
tra
##igui
##go
pod
rela
##teri
11
medi
prev
Comunidad
##arán
deber
##emp
entre
Los
##dific
ar
##dic
##enta
productos
##anci
CEE
##dos
Par
sigui
##pon
2005
efec
##tivos
##co
disposi
##ES
sol
##exo
##pa
##eces
mar
modific
##las
##rá
na
##pues
##ras
tod
##miento
merc
##clu
##cip
co
##tas
##ún
dich
##que
cor
CO
car
emp
##uerdo
##ecu
pue
##tal
2004
neces
medidas
##iones
Estado
##ven
form
##ico
men
##na
##idos
##ener
si
caso
##gu
20
##mente
##oc
##br
##den
util
15
##aria
##lan
##termin
##mi
##tro
más
##ba
##ing
##yu
##ific
##ch
aplicación
##én
determin
der
conc
##anti
Ac
espe
##tra
ej
##ías
##era
##das
##UR
13
Europea
##cio
##ase
##CI
In
##EN
inv
conform
inclu
norm
Las
man
miembro
país
di
##arias
##ez
##tim
##unto
to
comunit
14
estableci
##tivas
disposiciones
ayu
##rán
otr
17
##AD
##AS
##istem
sec
obje
##cional
##so
##cular
##amiento
##úbl
##par
anexo
##gram
##ya
##end
organ
compe
##ble
añ
establec
EUR
##con
consider
##erv
información
financi
ev
contra
##echo
condi
##zo
##tar
##ior
Deci
Un
##ismo
##tados
2003
control
##és
cual
##able
procedi
##dop
cer
30
16
solici
##eros
val
Decisión
adop
##ador
2006
Por
parte
particular
##ga
fun
ref
##str
exp
##ambi
##ios
serv
utiliz
##tud
##tura
31
sin
##ca
##ÓN
siguiente
pers
##ju
##atos
cal
cada
empres
##rit
n°
super
##ilidad
##aliz
constitu
posi
##reg
Pro
##uación
previst
##og
##enci
##cionales
##ín
present
##tores
##ij
##ces
conformidad
21
No
sistem
servici
##ticas
##antes
22
##mpl
Cons
18
##adores
condiciones
##uev
##tion
II
direc
destin
##icación
expor
##tica
##OS
##yo
##000
este
##icos
dur
gar
pol
##ío
##óm
25
##ité
##fin
lu
Acuerdo
program
##quier
compet
##ección
Se
##echa
pes
##itos
##uesto
person
deci
ve
##oci
pla
##xim
tip
##ables
prim
materi
dem
Vist
respec
##minist
Tra
##estión
COM
##ign
mercado
Consider
29
ins
##gos
##he
##icas
##gar
vig
00
sub
comer
##ferencia
##AR
té
100
##arrol
den
##lación
Considerando
esta
##ución
23
deberá
##ífic
##ina
gas
##ENT
##mis
arreg
2002
Comité
##ej
oper
arreglo
punto
gener
##col
##mit
ayuda
##tur
países
indic
fa
cuando
##embre
apro
exc
24
##edad
##taciones
An
datos
activ
##ER
nuev
##anc
##OP
##úm
resul
##sa
fij
cuenta
especi
Europeo
##ones
##íodo
##teg
##respon
ID
2001
Tratado
##mb
pu
##imen
##incip
sal
##TI
ter
##ltim
preci
correspon
durante
cap
##01
má
período
##blig
certific
LA
##ública
27
últim
desarrol
##anto
equ
##abr
todos
##ré
podrá
proced
##ual
producto
oblig
of
orig
##ancia
28
partir
##no
así
leg
autoridades
##ies
##conóm
1999
traba
##ers
defin
##clus
normas
##estig
princip
otros
##mbi
servicios
propues
será
##at
##cr
##bles
debe
cualquier
##uridad
26
##zar
##duci
forma
##ene
##úmero
##etra
##amen
##quis
##ud
##ye
eval
##ulo
##car
base
##rédi
transpor
##ivel
##IS
##empl
##bier
2000
valor
procedimiento
##encias
##echos
##miti
rep
investig
ten
deberán
De
##ít
terc
siguientes
##ál
##IC
nivel
espec
entr
90
refier
##imiento
##az
##mientos
letra
Visto
Rep
##ie
##uros
##ég
##ambién
Es
anim
mencion
mediante
##oper
tipo
conten
##almente
sit
dispuesto
##tección
podrán
##gen
cre
doc
plazo
Al
son
sistema
polí
producción
solicitud
cumpl
lugar
##ruc
bu
##cn
realiz
le
##asta
cos
##ista
han
##02
contempl
the
##antidad
deben
acuerdo
##ito
cl
prop
po
específic
PR
máxim
RE
compro
Cu
medio
inc
dos
publ
##inación
autoriz
garanti
hab
##ora
import
##vis
##irá
desarrollo
técn
sea
##yan
número
administ
tr
tex
cantidad
gestión
seguridad
Unión
ab
República
##ver
##ord
##za
referencia
##ular
##ant
docum
marco
total
##iciembre
##ítulo
diciembre
50
empresas
investigación
nom
excep
fecha
col
##entr
plan
##los
correspondi
Re
kg
sector
##cil
también
##po
notific
efectos
##ens
ind
##ID
tanto
##IÓN
##égimen
vigor
todas
refiere
efectu
##raf
##tico
##ient
##dustr
##cidad
##ona
##ma
fr
protección
##LA
##yec
mater
especial
desp
oc
puede
derechos
particip
##hícul
menos
tal
agr
antes
inst
sustitu
##sos
actu
dispon
##quisitos
haya
##trib
##esión
sust
198
##ve
materia
##0000
relativa
##NE
01
dicho
##rtículos
mé
contin
##erg
##clar
EN
mín
hasta
Parlamento
##tamente
##AL
según
repres
vehícul
mej
cooper
mínim
necesario
##20
actividades
respecto
afec
mism
aplicable
régimen
##iendo
##ional
fabr
exist
nacionales
transporte
resid
artículos
##just
declar
##der
##ác
may
elem
programa
mil
ver
mes
##ON
##ficial
legis
##terior
##ino
jun
propuesta
##endi
adopt
expe
respon
##tamen
mues
##ár
importación
ries
##10
##ancias
##pañ
vir
otras
interes
prue
industr
mu
EL
lí
##upues
económ
##CIÓN
relación
objeto
bene
pl
europe
obst
bien
ag
común
##duan
materias
qu
Para
gastos
benefici
bas
demás
##itar
ejecu
comercial
ajust
CON
32
obten
proyec
40
exportación
derecho
##ticos
regist
##EC
junio
Anexo
cam
##cal
##gun
##man
##ebr
vol
interna
##eno
establece
inici
evaluación
só
conced
pueden
##abor
##ódi
##AN
mismo
##tras
aduan
tom
##if
UN
##olog
av
igu
mod
##ne
pas
adecu
mayor
lim
35
91
precios
##dan
importe
sim
años
##ias
##ér
requisitos
funcion
##udi
jur
clas
medida
reci
##lev
cuya
UE
Si
##lu
##rib
distin
##ement
otra
aprob
recur
##gua
##ían
##iene
##eti
méto
39
##vo
animales
hayan
##OR
superior
##ciales
##serv
general
##ques
ni
sido
establecer
nacional
dicha
públ
##ificación
##ator
38
##ducción
corr
env
EUROP
##réditos
procedimientos
conf
Pres
33
##eras
autoridad
EUROPE
texto
##aj
Bru
año
##mo
consum
relativo
mercanc
##can
##bilidad
60
Cuando
##óg
ya
modificación
##ritor
##40
virtud
pos
estos
PAR
tem
##uman
administra
##ati
recon
##abilidad
and
indi
san
##mbito
calidad
inf
manten
neg
##IN
precio
territor
##árraf
99
##ich
elementos
párraf
##ub
Ch
##ea
ést
empresa
origin
serán
##pl
##UN
emb
garantizar
cab
hac
dictamen
presupues
##entas
partes
92
##argo
equip
##ismos
##cu
trabajo
comunitaria
comunitario
##untos
du
final
Bruse
acces
obstante
Bruselas
facil
##erci
##SE
##11
establecido
importaciones
respons
contrib
cooperación
previstas
##ísticas
##ible
otro
tar
##NEX
37
jul
##ición
ámbito
emple
##ENTO
et
algun
36
julio
cir
prepar
##strum
segu
pertin
##tidad
##icio
ún
##tegor
##UL
uso
III
párrafo
197
infer
perju
compr
##medi
aplicables
fuer
desde
##ap
##uos
##ativa
posible
mercancías
adi
capa
mill
##ím
casos
prác
tras
##osición
##RO
terceros
##va
límit
llev
está
##riter
##dar
resultados
95
ensa
consul
enero
##emás
alim
igual
personas
##pr
instal
ANEX
AD
93
sólo
constituye
const
##ADO
##ares
Des
última
ANEXO
relativas
certificado
anti
constitutivo
segun
competentes
propor
elabor
sean
##tocol
34
estas
##IDAD
jurí
objetivos
Di
euros
mejor
96
##erse
LAS
##acter
##empre
Ad
ayudas
aum
utilización
##des
##uc
##ués
ejecución
explo
represent
##idente
05
##alización
consecu
##isis
li
instrum
##pro
origen
##amin
productores
criter
comb
comunic
día
partida
sistemas
pon
02
tener
##tir
##pi
gru
##añ
exig
modificado
trabaj
##vención
##gres
especific
Pa
elec
Hecho
##emplo
##ódigo
div
observ
compl
##ícol
difer
transform
##iente
85
siempre
tres
categor
uno
##aron
##omento
ning
institu
operaciones
##olución
##igur
millones
46
legislación
conta
programas
##tan
competente
dentro
##ation
apo
PRES
inferior
ti
ejerci
política
informe
##tural
##90
##turas
##irm
##MENTO
pel
##bas
mon
##ENTE
iden
dep
proces
previsto
toda
##ato
##tric
necesarias
último
##tante
ejemplo
correspondientes
hom
##ania
dichas
conj
riesgo
##tocolo
caracter
máximo
Co
entidad
##ducir
mínimo
añad
As
decisión
##uales
situación
SI
som
##ibles
fu
##ISIÓN
dist
restitu
directamente
exper
gran
inte
##LAMENTO
Esta
##30
tiemp
cel
figur
soci
##dia
hor
organiz
##tom
Sin
manera
##tros
Partes
capacidad
45
##II
##bio
##port
autorización
Oficial
fabric
COMUN
intro
después
lista
41
vez
##ber
raz
territorio
denom
##umen
todo
determinados
acciones
contenido
##ám
##visión
export
expedi
DEL
dichos
gr
##TADO
##mon
meses
COMISIÓN
Diario
REG
##dap
perjuicio
42
##ja
prof
tend
industria
az
formación
##usti
human
tiempo
43
87
limit
criterios
##mac
situ
##entación
##antía
##ano
puedan
94
PARA
##tad
##ura
cantidades
##ivo
##ranc
ampl
ambi
nombre
pues
permit
##fr
op
##mping
##ficiente
##crip
recursos
están
##80
abr
##ére
trat
servicio
##ts
##inas
75
##vor
pero
80
##siones
70
establecen
obligator
perman
##irán
Protocolo
72
ne
acep
##yen
determinadas
mayo
organismo
IV
97
adap
organismos
Comunidades
marzo
tales
Au
##ULO
##tubre
##istas
Parte
sustancias
##hesión
inclus
regul
residuos
octubre
##vid
Créditos
objetivo
for
capítulo
días
conven
organización
##álisis
##ajo
##ACIÓN
##her
To
PRESENTE
energ
##misos
Res
HA
pe
1998
CU
estudi
misma
interc
aére
##13
98
momento
publicación
venta
ADOP
acceso
##ment
##edades
##and
vari
efic
peso
COMUNIDAD
ADOPTADO
pesca
inspec
EE
55
recib
##irse
##icamente
fon
refer
permiti
##ionales
##AT
personal
##ital
##ED
ello
##enes
##onia
##culo
##éase
em
costes
49
ii
##li
04
cuestión
do
entrada
##12
efecto
##onas
compar
##cos
modo
48
nov
tér
análisis
ejercicio
contribu
vehículos
relacion
##ce
##icul
min
Este
##lob
Euro
##guas
##istencia
incluidos
trate
integr
IN
Mar
88
##fac
##ós
Ex
44
REGLAMENTO
62
tipos
##entales
financiera
##cios
primer
##ival
funcionamiento
zona
fac
design
identific
pueda
competencia
##bil
provis
crédi
cabo
vehículo
Europeas
##dam
2007
vis
pago
##pos
sep
CA
##cias
met
##ecn
Económ
prueba
valores
gra
public
##inos
##rgan
84
celebr
apartados
##tantes
##erá
##una
comprob
Su
expres
##estr
estar
crédito
##JO
##ena
EUROPEAS
COMUNIDADES
##odos
declaración
Conven
abril
##asa
##cha
##99
social
##uerdos
##ración
proyectos
deriv
electr
inver
##tivamente
estruc
##cimiento
función
agrícol
cul
Inter
me
puntos
mercados
agua
52
1997
correspondiente
CUAD
va
##ológ
##gencia
entrará
ese
glob
##tadas
CUADRO
buques
comercialización
##eb
acción
1995
1996
generales
comunitarios
CONSE
controles
sig
##teriores
favor
CONSEJO
septi
ensayo
conv
##cter
documentos
##op
##paña
segundo
##arácter
ambiente
##cla
carácter
Presidente
1994
actividad
septiembre
##ambios
señ
000
establecidos
recog
establecidas
lab
##eza
##entar
comunitarias
individ
certificados
pi
equival
volumen
figu
participación
cumplimiento
sel
Ob
##ental
anual
##iembre
53
procedentes
Seg
##TULO
lib
noviembre
##ong
conforme
financiación
sign
nuevo
##illa
nuevos
hid
pruebas
profes
##obier
cuad
##ev
Miemb
##TIO
AC
Convenio
##xto
##pera
Además
orden
almac
SITIO
cr
estra
##rancel
comple
evalu
65
##ance
exced
natural
consecuencia
muestra
les
Gener
##ÍTULO
##lar
##60
##úcar
64
denomin
##puesta
características
##eit
fran
##TR
estad
##eas
us
##ov
##ONES
47
##up
internacional
89
##eración
54
suminist
cump
##blem
51
método
homolog
asign
##rec
##onter
##dica
interés
fal
ton
Pol
##trac
jurídic
##ial
persona
explotación
reconoci
mm
ES
##unal
salud
arancel
centr
zonas
Reino
excepto
##TIV
instrumentos
público
proceso
##estruc
77
conserv
obligaciones
##ativas
lín
cin
##ian
Vista
##prim
##gresos
68
determinar
##cas
términ
medios
azúcar
mec
Der
dirección
1993
##les
bajo
proporcion
76
rad
61
solicitudes
embargo
##tique
acuerdos
conoci
sem
##imismo
sección
lici
##CE
##ire
poder
modifica
reun
infra
destinados
anterior
suje
métodos
Fon
específicas
##elo
So
##eo
primera
##dose
##cido
Ar
consumo
57
##IT
tecn
##ivil
obligatorio
##50
material
figura
03
compon
66
cit
recu
organizaciones
59
tiene
respecta
##ves
##ño
superfici
empleo
##cales
##ebrero
reglam
##tada
febrero
inmedi
##turales
cier
apoyo
mg
especialmente
56
interior
gu
nº
aplicará
##iu
##leg
carne
coord
##me
##zos
##ach
##ilo
aplicar
simil
tonel
ch
##ió
Pr
recom
##tales
exclus
##ferm
incluidas
##val
Inform
signific
##dice
documento
políticas
audi
adoptar
Trib
2008
materiales
contemplados
clar
figuran
pelig
principio
##gn
facilit
tratamiento
proyecto
asoci
animal
SE
cent
78
##th
vac
67
##LE
##TA
acom
Tribunal
##terin
disposición
reserv
CAP
58
07
sos
considera
conclus
cuyo
notificación
##ientífic
relativos
financiero
grupo
##uestos
1992
estén
defini
presupuest
General
63
suces
sanit
permanente
##él
vin
esté
alcan
límite
registr
enferm
exped
mun
##ativo
comerciales
ra
indep
red
##ge
Ma
Fran
garantía
##enti
##be
##gas
##ustific
código
máxima
suficiente
carga
científic
71
##obierno
EEE
fabricación
calcul
mencionados
##iación
aseg
ofici
##und
reducción
concentr
##tención
examin
comercio
cur
##pel
lic
respe
##entra
##tida
##nos
importante
capital
##éc
presentar
agentes
##yos
fá
almacen
conjunto
técnicas
Ej
##zado
##ula
pertinentes
##ór
##uel
Miembro
##bo
##miso
##cripción
comprend
##ende
establecimiento
cuales
hacer
##conom
Fecha
len
##TE
presupuesto
presentación
registro
Nota
Fabr
clasific
distintos
##misión
porc
contrato
financieros
Dich
ml
trav
##00000
acompañ
##ientos
oport
##acia
##cid
86
##illas
tardar
##orte
principios
fundam
Fin
veterin
FI
consigui
problem
indica
internacionales
##19
inversión
nuevas
bis
intervención
##rucción
##ientes
##ern
través
##yl
Program
adhesión
pertinente
categoría
fis
##quen
cuesti
79
ir
homologación
riesgos
##ocia
##ik
podr
##ana
técnica
teniendo
rev
##iar
CAPÍTULO
##35
aspec
asegur
adopción
modificada
pública
##CIONES
consumid
firm
propi
##atis
justific
armon
06
Min
##04
on
consiguiente
dise
real
##crito
##iza
Lu
escal
proh
señal
prácticas
##itud
##ου
##icultura
europea
ofer
fabricante
##umer
aproxim
largo
equipos
complement
##crit
##OL
contratos
##encial
promo
priv
límites
electrón
etique
prevista
distrib
oportun
restitución
73
estará
##ención
##plic
divers
libre
entidades
excepción
tit
sustancia
##ormente
am
estim
incor
##endo
don
mul
##usión
##tec
motor
##jas
examen
##teriormente
##ung
##ulación
civil
satis
Sec
sigue
bienes
82
##sion
##oro
cambio
asistencia
fondos
pagos
af
estado
Total
Fabricación
##tender
apropi
##AC
##ibilidad
detal
##03
##iores
continuación
##eche
tempor
instalaciones
sustituirá
##brica
Alem
Gobierno
subven
véase
tercer
##exos
especiales
solución
utilizados
Europa
estrateg
posición
procede
cál
subs
legisla
elev
##ienen
separ
diferentes
facilitar
buque
oficial
posibilidad
aplicarán
decisiones
necesaria
IS
hecho
##23
conting
utilizadas
##IF
prior
invers
##ulos
74
##mien
someti
69
er
83
##iales
GR
DECI
práctica
comunicación
Serv
fue
Derecho
sectores
transformación
cumplir
título
via
vincul
correc
ante
utilizarse
instituciones
destino
at
##etas
previstos
##edor
##enda
Agencia
##sk
concesión
tel
##ine
##15
muestras
##TO
vo
pesqu
NC
energía
Alemania
cuadro
##ándose
mejorar
toneladas
##ociaciones
previa
concre
emis
quím
modificaciones
ninguna
##14
sociedad
##UE
agrícolas
específicos
196
encu
dif
únicamente
licitación
##entarios
locales
debería
intereses
##ide
circul
euro
dumping
fer
mecan
##IA
produci
Car
Mo
fís
##icidad
ajustan
permitir
dé
##acto
especies
##adamente
enumer
##iva
##tarse
actual
##álo
necesidad
garantiz
porcenta
compañ
fuera
incorpor
hu
elim
propuestas
global
##tens
papel
##ank
##éctr
##isp
aceit
##22
necesarios
##alidades
ningún
##áfic
##ostr
europeo
sucesivo
##gráfic
decidi
##ativos
cere
algunos
destinat
mez
##ell
representa
incluso
aves
inspección
usu
tengan
muy
##quel
##amos
##landia
aguas
pobl
ventas
cuanto
esa
Unido
##tiz
##mun
continu
is
##AM
fru
tempera
##ut
requ
independi
peque
necesidades
modelo
##rog
retir
enc
##54
contempladas
nueva
liber
susp
##anos
ingresos
evitar
##tera
regiones
caus
Programa
varios
prohib
##ases
##82
económica
##atamente
##ilancia
##uciones
creación
letras
realización
exclu
leche
##iudad
ro
##ater
econom
combusti
individual
regional
trabajadores
##aba
##ensa
##ivos
##enciales
prov
fil
carb
Is
etc
fase
##trices
##ítim
Ital
##abil
##tiles
mantenimiento
##cun
##unque
##16
##tividad
fronter
##tú
VII
provisional
##orator
##jos
cubr
##pacio
superficie
créditos
##all
##emente
Rec
tienen
##tará
aut
##idamente
inmediatamente
fines
presión
escala
##vil
##ara
cereales
pag
informes
categorías
decir
##té
Económico
mencionadas
Minist
##icios
sosten
##IR
seguimiento
financieras
incre
##fa
##idez
81
##ala
comunes
cinco
##unci
encar
##áp
Código
##ME
cuo
obligación
##ita
##ique
duración
##istema
Ayu
##egación
resultado
flu
dar
reducir
Pre
##ería
09
utilizar
arti
ciudad
Fondo
orient
expedición
aspectos
simpl
bás
##55
##ongitud
competi
existentes
##tions
exportador
emiti
asimismo
##irma
##edores
Ver
lleg
solicitante
importes
exceda
interno
vi
##anda
PRO
principales
##crib
satisfac
dom
##stancias
##inal
haber
##ático
realizar
1990
tendrá
##ag
##ibr
cubier
van
##ono
niveles
funciones
circulación
circun
hidro
único
##texto
##uelo
##ate
cuentas
Imp
grupos
VI
originarios
identificación
Le
contemplado
revis
##ensión
be
sac
08
peligros
similares
trad
contac
fres
conduc
aprobación
línea
suprim
##ambio
hace
nota
local
combin
conviene
norma
contr
##ños
responsabilidad
fl
coordinación
aumento
además
il
LOS
fra
dispositivo
040
debido
Eura
redes
##eder
Euratom
sur
1991
negoci
apor
Social
##ulf
mencionado
estr
conveniente
temperatura
jurídica
vigilancia
can
definición
tenga
##dumping
eléctr
##cho
consulta
##dial
Otros
términos
modificar
destinadas
antidumping
llevar
proteg
País
sustituye
propon
##ice
##vers
máqu
administración
conclu
adoptadas
primero
conver
aduanero
tecnolog
bor
unidades
cálculo
##amentos
##tario
compromisos
##idación
Dur
esf
productor
##izar
salvo
porcentaje
##ty
órgan
serie
profesional
Compro
puer
##iencia
esp
##izas
##áticos
clasificación
##gel
componentes
equipo
##cción
##84
afectado
adicionales
peti
determinación
##CIA
Italia
Sal
amb
##uv
##eter
sí
poten
restituciones
##atro
##eron
operación
contexto
afectados
##encla
económicos
autom
activos
modalidades
ISO
exportadores
longitud
##óx
##itor
th
##77
##jes
naturaleza
##nes
##mol
Una
obtener
aquel
##IB
formul
normal
bru
blan
Eslo
Or
apr
titular
compromiso
qued
##pre
##anco
velo
##TER
responsable
depós
entender
eficacia
económico
##07
ellos
##enclatura
##est
prove
incluir
bar
##ést
##IM
##39
aparatos
ín
##49
##amento
##SIÓN
produ
Austr
##25
senti
Comunicación
crecimiento
##culos
##ódigos
elaboración
tub
##66
Ofici
restric
evolución
fábrica
##ione
requer
contribución
##vación
##laz
equivalente
estrategia
parcial
fom
almacenamiento
puesta
laborator
##ece
donde
Medi
semillas
hubier
##etro
inci
media
ácido
multi
Nom
mismas
velocidad
consumidores
éste
##érd
terr
esos
##29
concentración
adju
auditor
FR
##éndice
relacionados
##DE
conclusiones
mencionada
##arca
fi
aduana
##stitu
Todos
impacto
##17
intercambios
compens
estudios
efectuar
reduci
importancia
##mbitos
##unta
recep
ensayos
encarg
códigos
##tug
cad
manda
instalación
##itarios
vista
interesadas
prob
Gas
Val
perio
dispositivos
problemas
contengan
##leo
##quir
Sch
##ulg
disponibles
sentido
trata
mejora
##ivamente
motivos
##ks
adicional
Compromisos
##lado
cif
España
cargo
sociales
principal
conti
requier
regular
Cor
anteriores
Obje
Francia
preciso
mantener
liqu
posterior
pérd
##eres
AL
CEN
##tel
##18
cuatro
inno
determinado
ACP
ámbitos
coste
reglament
contemplada
fijado
##ipo
##CA
incluida
##ικ
##05
mismos
vida
distintas
Pagos
franco
Seguridad
mol
reform
acog
respuesta
##land
gases
nu
##embol
adquir
aire
grado
inversiones
Número
siendo
sens
regionales
fib
ur
##ill
vál
infraestruc
construcción
da
##coh
esfuer
revisión
EX
implic
demostr
supervisión
autorizado
técnico
alter
adecuada
##08
Oficina
enmien
dese
##íz
##egu
unidad
EUROPEA
podría
##UC
fras
incluido
colum
administrativas
##ity
dir
emisiones
°C
China
aplica
##geno
##ef
Dic
derivados
aún
##drá
ofrec
intermedi
alimentos
vel
confirm
Cap
estadís
##vi
##usticia
acon
judi
Ejecu
##nas
incluyen
##ha
petición
condición
tam
prec
Can
##anza
##amil
instrumento
mov
##zas
observaciones
cambios
##esor
refor
##ICO
##omun
##59
cuestiones
##ICA
específica
##inam
##fo
##24
mayoría
##redi
logr
##iform
##US
asociación
##UM
##09
vacun
alcanzar
Ayuda
gras
nomenclatura
economía
aduaneras
recuper
exportaciones
aprobado
##cle
estadísticas
##33
eficaz
##ural
##bierto
intercambio
mad
anuales
consol
##tt
##antías
Na
##ben
bov
mic
##ho
campaña
queda
medioambi
##06
##ráfic
Ir
err
repar
##mas
##adoras
##dicion
##itario
Cada
Produc
margen
adecuado
plante
frecu
puesto
extrac
##58
##ímenes
300
Autor
enfermedad
Agr
líqu
##ting
##amo
##pedi
compati
Mal
##urgo
varias
hacia
cubrir
utilizado
distribución
abon
dimen
marítim
circunstancias
seis
##ajos
Servicios
unos
##ficientes
especie
supl
aplicarse
razones
exterior
transmiti
DECISIÓN
Den
coher
##ese
medic
##tó
suministro
usuarios
##eográfic
impon
oral
frente
Organ
anexos
públicas
proceda
##tencias
cumplan
##isiones
bil
OM
supon
PIC
Desarrol
dirig
##dr
facul
##isch
Ca
normativa
SEC
contacto
aliment
cop
Secre
im
ru
##partida
##rea
##ει
##cur
##TOS
dismin
AN
##imenti
##imit
##xemb
##27
veg
##ticamente
##47
adj
ésta
curso
##gosto
##ri
importantes
##cado
##ña
pal
##ug
##ton
color
particulares
Sub
##ecer
alcoh
alimenti
reac
Per
##αι
Económica
agosto
apli
##tran
τη
labor
ráp
estarán
dan
horas
transmisión
indicación
Tod
educ
periodo
prestaciones
originarias
complet
##inar
famil
##tuto
humanos
##sific
efectú
NO
##osiciones
partidas
##ALES
luz
##31
radio
adoptarán
prevé
autorizados
mutu
anteriormente
masa
diferencia
##mission
hay
garantías
legales
Estas
dest
seguro
perió
geográfic
destinatarios
##amientos
selec
Clas
Portug
ol
Desarrollo
esas
propios
ferro
ho
razon
aunque
##rig
##álogo
concep
Nombre
guión
alimentación
lucha
abs
##ET
administrativa
vistas
bi
inicial
500
Vía
indicado
experiencia
denominado
verific
prést
##resión
venci
reconocimiento
TR
específico
##entro
certificación
presentado
salida
Véase
Fa
transitor
Disp
públicos
futu
Luxemb
competencias
transpar
Tex
999
mal
##ulas
Nor
Dictamen
incluye
aument
expertos
anticip
Ta
her
veget
##landa
##sito
reno
manif
recip
repro
escrito
posibles
preparación
obtenidos
##EL
falta
Mon
400
vend
##EM
##ráfico
bal
fijar
##ránsito
prefer
##quilla
ocas
fitos
confid
población
nit
cumplen
##roga
UNIÓN
envi
hora
Dec
impuesto
##tades
##ág
participantes
integración
##etros
carre
##ρο
Director
Bo
explic
##tilic
##entemente
Irlanda
##sta
##cus
##ciación
conservación
##85
segunda
##pas
jurídico
##iti
informará
rendi
algunas
pror
Ha
indicaciones
adjudic
dil
##porte
columna
impuestos
descripción
funcionarios
representantes
estructura
operadores
tránsito
inclusión
sostenible
preparados
técnicos
tej
##ró
##inamarca
##DO
había
Trans
##rom
Proc
extra
##elos
Dinamarca
##erca
##ñas
##año
fibras
Estos
precis
Interna
dado
interpre
utilic
transferencia
##ítulos
##26
##ση
tendrán
detall
AP
iii
transfer
IT
fijación
perten
##21
acu
diseñ
ing
TIF
##antequilla
deberían
alc
Países
Común
termin
nav
toma
bordo
int
Deber
Sue
##ezas
considerarse
Ejecución
Comentarios
progres
entenderá
##37
uniform
exac
##ων
documentación
propia
central
CESE
ajuste
sino
máquinas
representante
##rend
mundial
##vos
negociaciones
aumentar
Austria
##iamente
##ure
##lor
presencia
corral
##ith
espacio
regímenes
considerará
Requisitos
dispone
mandato
banc
##bres
lác
##turación
Portugal
recogida
##TIVA
##mpar
##enen
era
introducción
textiles
Dirección
Que
##aminación
cuota
directa
sta
##tencia
exter
go
##ein
FILE
presentará
sil
licencia
patr
seguir
##izados
fitosan
##cripciones
##talizas
lig
pudi
adecuadas
apoy
##aca
primas
##are
##ientras
Presupues
fiscal
Suiza
AR
Am
permita
##iel
Propuesta
considerando
Denom
También
Suecia
analiz
Unidos
directrices
1989
exposición
planes
aéreo
naturales
PY
evaluar
marca
posibil
solicitar
beneficio
##enas
vigentes
resulta
##crim
ta
SA
reembol
lenguas
conocimientos
##ícula
##ética
aer
##titud
##lico
factores
ciudadanos
##34
menor
##erán
##aban
realizadas
##emn
##ENCIA
colabor
lengua
lácte
relacionadas
Ruman
expir
cic
región
gen
##ubl
##izado
ox
considerado
interesados
dej
tomar
Gru
consideración
ofertas
##UES
clase
##íg
frutas
conocimiento
propiedad
agrícola
Observ
seguros
##anas
##oma
beneficios
mó
##íodos
muestre
tier
##ieron
relaciones
##tá
##36
celebración
##carb
##ús
##51
desc
claramente
EC
atrib
finales
tercero
iniciativa
existencia
##ama
contribuir
reestruc
##FER
tur
Como
refle
##OT
discrim
prima
cuar
adquis
aceite
mínima
Naciones
##98
exención
hortalizas
##quil
principalmente
deu
validez
##todo
frase
reserva
períodos
##eca
establecida
##uega
##IO
residencia
##TU
Unidas
by
##roz
##uevos
fuentes
subvencion
cualific
término
debidamente
Bulg
micro
##57
someter
Denominación
##ática
adoptará
ecol
##adora
Bajos
##ificul
notificado
formas
##ADOS
contaminación
PYME
ejerc
##ablemente
exclusivamente
##cin
elemento
gan
Bulgaria
éstas
pien
##ertura
beneficiarios
##ão
plazos
##000000
suplement
##arc
sujetos
##OSI
adoptado
dificul
junto
trabajos
##RE
baj
líneas
Autoridad
tareas
104
##38
tráfico
##cina
destinado
##empe
esenciales
DIR
fijados
temporal
periódic
plen
##ατ
permite
ecológ
Med
Aso
Sí
estudio
080
##tive
##28
Luxemburgo
posibilidades
DIREC
desempe
mantequilla
máximos
Polonia
reuniones
activa
comunicarán
Directivas
comprendido
medición
adecuados
reper
administrativos
piel
avan
oferta
ah
exces
entrega
fomentar
##ime
alimenticios
sup
declaraciones
detec
##érica
##endaciones
europeas
Gre
esencial
disponible
##ril
Ind
##ale
consideran
##ite
##IL
alta
alcance
##48
bo
1987
neto
##tina
fo
consist
##oles
acondicion
potencial
Texto
Cas
nucle
##91
##itu
anun
##cep
fondo
##tensidad
acum
actualmente
centro
distancia
enumerados
medicamentos
##lamentos
##mento
adopten
die
plantas
responsables
unas
jurídicas
eleg
##PA
coloc
institución
centros
GRÁ
##tis
BCE
Ro
concentra
pasaj
solo
prever
##trol
bruto
prestación
sp
destina
ju
veterinario
##len
##bor
remiti
##olu
pró
excepciones
laboratorio
XX
sociedades
recomend
mientras
##izada
acero
interesado
subvenciones
presentada
Modific
##puestas
##zca
acord
trato
##ard
mecanismos
industriales
carretera
humano
totalidad
explotaciones
Pop
profesionales
EU
Commission
##óleo
suministr
##bia
Sta
##nia
##ke
##ph
respectivamente
comprobar
atención
Fun
##andida
Asociación
crear
utilizando
dia
moned
diseño
ellas
##gica
promover
destil
quedará
tecnológ
compuestos
beneficiario
prevención
Acta
##ka
proceder
##toria
Finlandia
##taría
##olo
aux
huevos
plenamente
##68
##67
oficiales
ul
fundamentales
Posición
Tel
hil
indicados
ley
vía
permitan
alterna
all
##ixto
Gastos
The
presupuestaria
reestructuración
compañías
Popular
aleg
fren
aerona
Tr
##enz
##ivers
adaptación
##OM
Capítulo
actualiz
##ancial
Hun
candida
completa
cla
Información
##red
estatales
##iment
##log
interven
seman
##via
expedido
reglamentarias
próxim
legislaciones
educación
Man
num
indirec
vid
económicas
influ
remol
grandes
fijan
##CH
aus
subvención
##drán
Ap
Mé
reglamento
verificación
Lt
pron
Po
rendimiento
incluirá
cualquiera
alguna
contingentes
te
especificaciones
##ted
020
##ys
##osf
seleccion
Comprim
asegurar
with
describ
cru
apertura
congel
fija
Grupo
muestreo
##POSI
restr
importadores
Asimismo
FIN
derog
efectiva
impres
poner
##zcan
combustible
aproximadamente
clor
referente
DIRECTIVA
cumple
##wa
enfermedades
bio
firma
anal
lácteos
blanco
enfo
efectuadas
obtenido
emerg
recepción
innovación
humana
conclusión
##AB
denominación
deba
##45
equil
##tán
coe
##echas
##izo
individuales
compañía
admiti
PIB
sigu
reda
emisión
rue
Form
recomendaciones
##93
reservas
consign
efectivo
perspec
##65
eliminación
mezcl
flex
equivalentes
Rus
sól
diferencias
esper
descrit
##ámenes
IEC
Euros
und
quin
añadirá
contrario
Ltd
##urg
restricciones
bilater
ov
futuro
Tras
sulf
reunión
etiqueta
contingente
Sa
##jetas
asunto
vencimiento
secre
europeos
##tarán
Noruega
##ze
arroz
tan
rent
alum
indicadores
FED
ep
usos
##arb
determinada
##fronter
Contra
contamin
Informe
##ning
liquidación
##ttp
def
existe
Norm
edad
ampar
inm
##ör
##tificación
Espe
Comprimido
id
asignación
Reglamentos
pen
##lig
Centro
selección
constituyen
adquisición
BE
##DUC
AG
decidir
transfronter
expl
razón
concedida
http
apéndice
autorizar
Banco
pág
dev
Objetivo
pasajeros
tecnologías
esfuerzos
Hungr
colec
agencias
realizados
indemn
ponder
marg
##men
activo
Tur
Gar
destinada
Según
##uesta
cuanti
original
##idar
basándose
pequeñas
equilibr
##eta
alimentaria
##69
esti
Lo
##lom
##ueba
increment
presentadas
Equ
tradi
única
REFER
##rógeno
NA
##fen
alto
campo
éstos
aproximación
far
##ieg
conceder
art
Col
##BL
Plan
##44
##71
##ORM
##ban
##exión
atribu
Tipo
esc
depósito
actos
refieren
exigencias
introduci
mecanismo
##32
establecimientos
##engen
operador
##estion
lograr
Hungría
Lis
ais
sanitaria
puestos
factor
define
##étr
contratante
Importe
reforzar
pérdidas
etiquetado
Presupuesto
##tat
##rucciones
lle
él
cau
crea
película
alg
ella
##uestas
suspensión
Nuev
um
citado
##for
iniciativas
auditoría
Pod
Emp
opin
diez
Ley
##rio
Schengen
accid
recurso
aérea
qué
##olver
industrial
accesor
##ram
frecuencia
##ko
limpi
proporcional
##UP
plás
0406
consultas
cuestion
colaboración
gasto
cuantita
desarrollar
ofre
anuncio
órganos
##ético
introducir
##tif
##ipre
IVA
similar
otor
##gán
agrup
mezcla
judicial
deban
##aco
presidente
##010
A1
##isti
##ederación
##guar
MO
minu
llam
Checa
aero
##ités
carnes
ejempl
REFERENCIA
Li
efectuarse
retirada
contratantes
ampliación
##88
##reas
Grecia
San
infraestructuras
##osa
##élgica
India
Rumanía
transcur
SO
##tual
##alaje
pens
##vas
transac
incu
autén
Bélgica
Ten
disponer
DIS
##ficiencia
propone
concepto
##ede
vegetales
últimos
##itro
recurr
##ficit
aqu
Administ
suelo
presenten
capit
asociaciones
Minister
Gu
lote
recibir
##we
ciclo
dañ
##cionamiento
haga
piensos
preven
comunicaciones
realizado
envases
##74
informaciones
Internacional
efectuados
##zy
polic
Disposiciones
Sección
físicas
##ICACIÓN
polvo
##64
468
establecerán
combinada
agente
MED
##olv
pose
tor
Productos
garan
##terrán
absor
##iera
##boa
copia
autorizaciones
enfoque
acerca
Ra
##áticas
Justicia
##izadas
piezas
aceptación
##puesto
añadido
competitividad
contenidos
##art
inspecciones
Lisboa
##ni
globales
viv
1988
##92
##ajes
Resolución
firmado
reconoc
##ezcan
##imo
##tróleo
Durante
Centr
##πο
Energ
manifies
conoc
peligro
privado
##bank
definen
podrían
cerr
##ículas
9000
fronteras
grav
determinará
elevado
##eguir
diálogo
distribu
##sider
aéreas
cm
esca
solamente
carta
habit
##ια
descar
##tional
muj
promoción
##ICI
recuperación
##62
petróleo
##izon
##ícola
A01
414
comparación
##ere
licencias
simplific
edi
##dico
##75
##IV
##aces
desempeñ
Lib
envío
##net
##cidos
##ft
##OG
garantic
PES
refrig
cierre
Cal
##ki
Chipre
##rac
nombr
agricul
Sistema
fen
##venia
reconsider
eu
gestion
prioridades
prorrog
interval
presenta
pic
tol
desarroll
##ise
##asas
tasa
efectuará
comprobación
alcohol
composición
demanda
##óxido
déficit
admis
requiere
igualdad
interpretación
##ly
realizarse
componente
##ficio
efectuado
150
sanciones
proveedor
##quisito
dificultades
##ture
Institu
horizon
##70
##icen
##tiende
visado
##79
magn
órgano
ferrovi
casilla
marcha
##lazamiento
##enden
##tranj
vuelo
peligrosas
##ezca
participar
##fil
uniforme
TOT
##ecen
utilicen
cotiz
##regular
clientes
parcialmente
##rse
actuales
científico
aplican
##financi
Debe
baja
Pes
##tidas
##61
espera
250
Organización
dec
1000
##idi
aquellos
##íci
presentes
despach
Comer
científicos
##iciones
Duración
disminu
lado
zo
procedente
propio
Malta
##one
##MP
Inv
##ych
proporcionar
reforma
TOTAL
##dio
exteriores
At
superiores
RES
remun
metil
##ete
electricidad
##hid
cifras
investigaciones
cadena
proteger
Fax
modelos
extranj
consecuencias
##sel
irregular
inciso
##isdic
##ámetro
##éticos
Esto
embalaje
##YL
##eos
cuantía
compra
mínimas
##genes
electro
##ituania
rural
contiene
##ervo
exclusión
madera
mor
subpartida
préstamos
extre
ef
Eslovenia
##ATE
oportuno
##plicación
diversos
ambos
Let
##ienda
igualmente
##yó
salva
autorizada
Lituania
volun
enmienda
Del
recha
##uf
pros
jurisdic
variedades
EUROPEO
##mar
Regiones
diversas
##ção
##iere
expediente
adel
deuda
amparo
potencia
pan
##ng
2009
##tox
Coun
Declar
FE
incumpl
##cran
##εί
marginal
sufr
##81
adoptarse
significa
pendi
##IP
independiente
interoper
suspend
hig
Princip
##endencia
emergencia
elaborar
hará
completo
##table
comien
suficientes
conjun
120
tecnología
motores
veterinarios
contabilidad
NE
director
inicio
proporción
depos
##puer
##onio
utilizan
afectadas
##ear
L02
##carburos
din
arancelarios
sujeto
Cro
concede
alguno
fueron
##ρι
producido
Rusia
##omo
##ple
existencias
eje
administraciones
Anti
##ata
##tég
provisionales
Letonia
detección
estabilidad
confidencial
reflej
fácil
Estonia
event
part
##istemas
contratación
##iares
##42
##tabl
##aría
##torio
Limit
##är
acc
normales
##FICO
impedi
##icaciones
106
##ép
viaje
##señ
##lop
obstá
Defin
recibido
Orient
dip
##iquen
##tig
Agricultura
núm
sujetas
aparato
##órm
normalmente
comunicará
rig
reglas
existen
##yas
asuntos
##ítica
Estatuto
##taria
compensación
independientes
escape
centrales
transparencia
##torno
##pati
recubierto
ETI
##itación
##fas
##vía
indicar
corresponde
examinar
tabl
habían
Cooper
electrónico
requisito
156
##DA
transportes
legal
versión
prescripciones
motivo
procesos
sería
Recom
AS
renov
acab
demues
ital
##dido
##istir
##hyl
cultivos
##glos
##ÍC
##tando
acervo
razonable
libertad
##95
umbr
##ipulación
##IOS
##uso
asesor
Fondos
##ew
compensa
habida
##lec
imposición
navegación
##pal
encuent
reduc
##anol
VIII
##áus
fijarse
índice
estadística
##lin
interiores
calcular
Así
tox
Notas
armonización
móvil
pasa
##urs
052
Dicha
##ugos
##mbH
mínimos
establecerse
hal
##iado
balance
consumidor
buena
vayan
producir
proveedores
frescas
##venes
mecán
problema
definitivo
depósitos
soluciones
tamaño
##óvenes
Bank
incid
##ibil
hidrocarburos
dimensión
##pol
##LAN
mit
enseñ
rod
##IENTO
autoriza
##ium
situaciones
difusión
aeropuer
bol
vivos
Convención
jóvenes
##ges
comprome
sometidos
Será
160
Cuentas
enter
encon
designación
Fisch
sab
##IG
abier
óp
Comercio
suficientemente
Otras
Control
Acción
registros
trac
##abell
mujeres
listas
aplicado
capturas
POR
entreg
considere
##gre
veces
situado
vidrio
ET
##ariedad
Todas
estructuras
##inio
##uls
puerto
perci
aéreos
corre
instrucciones
empresari
indican
presentarse
bovina
referencias
finaliz
Procedi
vino
##quía
2010
encuentra
fores
vigente
tejidos
Materi
estric
##tido
##later
resolución
utilizada
##UT
Apar
##tres
apropiado
medioambientales
previamente
exigir
OMC
Sol
medioambiental
revesti
##cima
103
##uelos
factura
desemb
enmiendas
Ser
impu
NL
emitido
há
Industr
infec
candidatos
Her
reconsideración
##roma
GRÁFICO
##zione
##igo
respeto
obras
iso
388
supervis
plano
coherencia
N°
##52
##queo
ausencia
incom
domés
beb
demora
##CO
##ija
Hab
mensa
##anse
Eval
##63
precisión
##ox
##ima
##taje
existente
expon
Prepar
Central
##crania
fuerza
hum
1985
Bel
sustitución
PT
superficies
Ucrania
considerarán
comm
univers
poblaciones
auto
recipientes
##tador
habrá
cultivo
importador
moneda
accesorios
##ding
Ab
##itaria
##posición
incluirán
conductor
palab
Espacio
##oso
renta
##INE
##logía
apliquen
##ser
programación
estratég
108
clave
##ive
física
frenado
##esiones
##ann
incremento
Queda
vías
marcado
creado
GB
inser
125
europa
terror
concreto
mig
espa
sinté
pensiones
daños
altura
debajo
##QU
comisión
porque
ven
2013
embal
sa
definidos
presupuestario
agricultura
expiración
Mixto
tari
simul
graves
trim
publicará
της
definido
contable
##IZ
##rido
redac
dig
fuente
químicos
informar
contienen
autorizadas
Dado
##este
Condi
##eran
720
nacimiento
crisis
##entario
títulos
##LO
##ecimiento
pesqueros
105
##dz
##hal
tenido
exige
publicado
##velop
aceites
Título
establecerá
##quin
monet
##TIVOS
##iden
identidad
territorios
prohibición
Ning
##íos
##ür
arm
PARLAMENTO
##éanse
##pacidad
##ualmente
considerar
br
bancos
##onal
Todo
indicadas
CONS
##che
##PS
sanitarios
##ken
abas
notificada
DISPOSI
alquil
infracción
acredi
página
rel
##adro
1975
Hasta
personales
##αν
coeficiente
Dep
aditivos
contribuciones
##ler
Conf
adoptada
trib
Secretaría
números
orgán
basado
##73
adaptar
eficiencia
entiende
220
aid
##enos
todavía
permiso
contrac
##dom
previo
##ugosla
raíz
objetos
indicada
##CN
fórm
combinación
fundamental
Pers
estatal
referentes
enseñanza
matr
celebrado
στ
concedidas
posteriormente
##graf
##lio
##fe
##ον
expedidos
##zada
totales
virus
cist
##lad
modificados
corto
adoptó
hubiera
esto
aplique
intrac
compuesto
metá
##bern
INF
interoperabilidad
##bra
##στ
deleg
Turquía
Yugosla
##uncia
cuotas
fases
bilaterales
##ude
tierra
desglos
corriente
grave
asum
poli
Ejerci
Energía
salvaguar
##PE
mando
ambas
calculado
##bit
##ística
rentabilidad
##MIN
##itarias
1986
inferiores
vacuno
##hr
##tesis
600
Presid
##rato
##SA
fomento
traslado
auxil
##ix
Modificación
204
complementaria
excepcionales
convoc
intracomun
rectific
banco
alem
separado
##endario
##ología
##ux
abierto
km
za
##imientos
##frica
Dicho
provoc
Apéndice
Declaración
##än
##úr
frances
EF
Condiciones
perfec
##onóm
cuyos
porcina
REP
Gran
##ipos
acumul
controlar
América
Ejercicio
velarán
Ph
análo
##bertura
TÍTULO
##enso
pérdida
diámetro
fiscales
##lamiento
##puestos
grasas
Antes
##tical
##atorio
118
niños
Cooperación
orientaciones
##ile
##prop
líquido
##cusiones
Croacia
much
ge
mejores
estructurales
Medidas
suma
bre
metales
ciertas
coordin
DECIDE
ata
dimensiones
encontr
mención
Mari
lugares
retras
##ién
incumplimiento
minutos
Entre
tab
acel
##emento
apoyar
contenga
subvencionables
intención
modificarse
infraestructura
##CL
##46
utiliza
distinto
##amp
propuesto
restring
DK
definir
amen
térm
modificará
oliva
Islandia
##uo
##stein
exten
Sp
respuestas
miner
toler
eran
envas
mano
και
ale
encima
Toda
justicia
##rup
DES
PA
maíz
enumeradas
evaluaciones
disponga
geográfica
Evaluación
PRODUC
norte
##isto
##bajo
finalidad
integ
estip
opinión
discriminación
ocup
autón
##ficios
concedido
Fundam
##ds
destinatario
##adero
efectivamente
presentados
Ministerio
sacri
accion
terreno
aduanera
Soci
CR
armas
especificados
##licos
270
reembolso
##tecimiento
##cciones
##78
transitorio
##ines
cláus
##ariamente
PE
experim
registrados
##ufac
##izaciones
Año
empleados
##72
##GR
##dis
Marco
sujeta
##abilidades
##sen
parece
ruedas
##torias
limitado
Kon
PL
directo
sanidad
llevará
DISPOSICIONES
IF
Cer
603
##ecomun
definidas
tóx
preced
adelante
Recomend
aten
Pos
ON
introduc
Cual
activas
doble
mercancía
diagn
perspectivas
##πι
##ola
Mac
##tadores
Dichas
CI
estabil
pesar
consultivo
##43
defensa
##ών
##quia
movilidad
Directrices
##riba
του
científica
canales
temporales
cuestionario
##si
##ilan
178
formulario
defec
socios
CH
fich
1977
reproducción
Deberá
tenerse
añade
##ianza
##quiera
##TRO
propiet
##yn
Administración
viol
conformes
vinos
inflam
diseñados
conversión
conocer
##itas
kilo
notas
corresponden
##ρα
Intensidad
dedic
basada
plástico
significativa
##onos
efectuada
multilater
Br
##fra
##CR
##uras
emprend
importados
Internet
Pue
resultantes
##ira
Estruc
calendario
##kt
DG
102
herram
Th
Az
muer
##etil
##ering
beneficiarse
TIFF
For
radia
negocios
acogida
prote
sex
Cos
CAR
amplia
##van
##MA
doce
Aunque
clín
textos
causa
efectúe
##ológica
limitar
Ba
##idor
##ind
resistencia
actuación
electrónica
tonelada
sacrificio
cohesión
fitosanitarios
##aran
101
conflic
blo
Investig
delan
nr
della
urgencia
arriba
estatuto
Bu
basa
vaya
110
Kom
##ENER
administr
respal
##ibu
ecológica
##yd
##BS
##arque
imposi
regla
ejercer
amenaz
alzado
definiciones
Enmien
hilados
sometido
##94
impl
European
grasa
básicos
cubiertos
##76
##ológicos
otorg
transformados
Recomendación
pabell
asc
misión
concentraciones
concederá
consideró
subsidi
Lí
mezclas
##amina
permitirá
flo
##icidas
operativos
##ERV
PESC
Anexos
##centra
figurar
##dif
prestar
log
fijará
subsistema
indicará
1980
contrapartida
responder
previsiones
integrado
remuneración
cofinanci
Miembros
peligrosos
kilogram
tro
##001
insu
une
incluya
Resid
eléctricos
policía
manifiesto
repercusiones
##estre
admisión
##ciente
ren
sustancial
Bos
Em
##inta
formato
abord
incluyendo
reún
1260
citados
alcanz
Vol
##ek
##int
reglamentación
refriger
CAS
##96
bebidas
corrección
##πό
preten
circu
Secretario
cám
variedad
##oluciones
mundo
progreso
##iras
regulación
percib
##ólo
##organ
cumpla
che
adjudicación
##tarios
judiciales
pabellón
##hí
refuer
##vaquia
##ordin
apropiadas
foto
intervalo
##uta
tomará
paso
perteneci
democ
probable
INTER
contemp
115
Valor
##ry
##ilación
hier
cuyas
agricultores
GmbH
hechos
domici
esfuerzo
##odón
limitada
##viene
##kel
equilibrio
om
##oj
financiar
Dem
##torios
##edonia
##umento
##abe
deneg
peces
tele
pata
metodo
Sil
##ang
arancelario
estrategias
##íc
##ence
observación
oficina
carbono
bases
##dor
obtenida
Bas
contener
cargas
disminución
Ve
ajustarse
envase
criterio
ART
amon
aceptar
diagnós
sodio
marítimo
##ieran
pour
vinculados
laboratorios
lar
informarán
hacerse
nominal
Descripción
##ού
designado
asociados
Ho
escrit
saber
##xi
elección
aprov
reducido
sobrepas
reglamentos
totalmente
ampli
combustibles
1702
##económ
complementarias
inco
comport
correcta
##tón
pronunci
ileg
##undi
plagu
comprom
ofrecer
##jeros
Garantía
##istos
##ilar
eliminar
145
tradicionales
##uecos
##ulares
usuario
pide
vuel
lan
secund
realizará
continua
##tio
prór
Eslovaquia
Norte
##ations
hojas
rú
Classific
italian
comité
fijadas
idén
##tosa
##uminos
Ber
útil
derivadas
aprueba
ja
148
Región
noci
Resul
tasas
marcas
desv
Derechos
Cuadro
reparación
subpar
diferente
Teniendo
bul
os
obtención
##ket
##teras
acto
cobertura
##SI
reca
respectivos
##yr
algodón
##cionar
Desp
##uebles
Desde
adición
sosp
prioridad
familia
##ocup
líquidos
concederse
farmac
impedir
Investigación
st
Eurostat
harán
##úl
##ical
atm
dans
cambi
mer
ARTÍC
suel
capr
rápida
grad
regulado
##41
pendientes
producidos
##tización
ingredi
cuarto
responsabilidades
acompañadas
traduc
##loro
##emor
##landes
buen
vapor
##ner
113
##56
1976
metal
OC
independencia
frontera
##els
1784
luces
122
extracción
reales
oficialmente
cometi
irán
presentan
mutuo
inde
##cy
COMP
cosas
SECCIÓN
demostrar
lá
clim
administrativo
modifican
enunci
plur
##ámetros
electrónicos
habr
descrito
obstáculos
Habida
##ídos
innov
Inst
cría
Gro
Macedonia
supone
##dices
correg
renovación
conseguir
Residuos
Rural
insta
##ther
##timo
##ull
109
##stas
##zaje
##5000
etil
har
aprendi
HC
supresión
##isas
ahora
acuicultura
Lista
Procedimiento
##ht
##ère
Conferencia
##ετ
9100
ampliar
nuclear
pedi
valoración
intens
##chura
tubos
##ING
##igna
afecta
CD
Mun
resto
##jeta
aclar
directivas
CN
QUE
##hen
Conviene
citada
posiciones
político
buenas
UK
hec
##lados
indique
iv
117
presentó
diagnóstico
##bili
##ológicas
conjunta
operativo
telecomun
Art
preparado
intercambi
supedi
aprendizaje
préstamo
motiv
corresponda
contables
convenios
aprovech
##ferencias
palabras
##iados
##iano
107
minor
##obiernos
##uas
militar
originario
##ílico
##ignación
Contratantes
130
denominaciones
tabaco
136
constante
permiten
silves
abastecimiento
L04
##ία
##iss
##ERA
GAS
##ÍA
transacciones
Ag
##guay
Confederación
solicitado
##ji
políticos
Cualquier
##pen
jurídicos
periódicamente
Mad
##af
prol
##atoria
partículas
garantizados
solicitantes
tomarán
aviar
fabricantes
prac
incluirse
##IDO
máquina
##tables
tren
aeronaves
##tenstein
pagar
básicas
laboral
aquél
capacidades
reacción
##éu
preocup
aplicando
sent
##esa
##cula
##elec
incendi
pasivo
Régimen
eficaces
sanitario
Salvo
Sr
refin
contaminantes
asesoramiento
primeros
##mer
comprende
##tus
sir
##CION
añadir
ejes
##part
quien
##arición
123
elevada
Canad
Super
την
verificar
estrecha
transferencias
sede
Marr
##TRA
propiedades
entorno
pertur
L01
relev
prevenir
hog
resulte
detallada
##mentos
Er
plaguicidas
##dencia
##alia
progresos
ole
##echtenstein
mac
##éticamente
Corea
coherente
fé
##tista
caud
aluminio
##TIC
poco
1970
citadas
expresado
nucleares
quedan
situadas
catal
empresarial
##ger
confidenciales
Dis
tre
##zeg
sola
óx
químicas
aquellas
##iego
Liechtenstein
acabado
##cre
##ectura
##ADAS
notificará
explosi
Be
arg
simultán
Pla
tran
##PH
##ieren
##bió
##don
##ñe
Regul
133
significativo
gama
GENER
Arti
calor
##cor
##IE
Categor
1701
Sobre
Marruecos
non
##úmenes
128
##alizada
situados
estándar
CL
το
##yst
##ku
indemnización
Yugoslava
incen
IX
fijada
ciertos
AB
aplicaciones
química
##900
parámetros
tomarse
eta
orientación
Medio
alred
asiento
gén
##uch
##imonio
##izos
incidencia
800
##ENTES
1972
##egro
provision
##TIVO
modern
ventajas
hábil
designados
llegar
##pir
oportunidades
##ww
arancelaria
tuv
lleven
desin
previs
251
##portes
elaborado
cubierta
haberse
manti
##PC
hubiere
perjudi
Canadá
##entan
Determin
##udo
##erías
##tidos
transición
limpieza
recurrir
##jec
##mos
actú
CECA
112
apropiada
MI
soporte
constituir
patrón
Especi
Ninguna
Doc
manufac
despacho
PER
desna
simplificación
reas
partici
proporcionalidad
##ices
exportados
cabe
##blemente
##tol
limitaciones
subpartidas
solu
energética
vag
sanitarias
Sistemas
identificar
Observaciones
fórmula
Alb
##azione
realizada
cloro
inmig
plurian
dilu
##TES
1978
procederá
viabilidad
afectar
garantice
##ederal
ecus
repe
presupuestarios
prórroga
área
##uración
actualización
horizontal
##ÍS
##anía
potas
sustituirán
BAN
0207
##ernam
##acion
paral
##ementos
Instrum
##ientas
##100
##ivas
separación
amor
##ée
situada
sacar
Empres
anchura
encend
Método
aviación
AT
##elas
superar
reformas
##inci
ces
##rogar
cuer
##mino
umbral
##ela
##ember
SU
##iebre
##DI
dibu
##CED
##locu
publicidad
ajusta
representan
##ità
##haus
ped
##urr
##iet
##ork
presentarán
conjuntamente
##ícil
trigo
pasivos
posteriores
##ats
##its
##ficiencias
##carril
consta
difícil
##lim
homog
artifici
comprometi
dio
##mid
##ute
interlocu
212
pesquera
auditorías
banda
##istro
consiste
EG
plena
nitrógeno
CC
plata
mesa
alrededor
##reto
Después
##aje
consejo
ayudar
disponibilidad
señalar
compatibilidad
subsidiariedad
utilizará
##activo
##wer
lav
examinará
ben
##MB
Conclus
0402
Islas
www
##gación
guar
##yecto
neum
rein
1782
aspecto
realmente
##rgenes
tercera
Mediante
planteamiento
kilogramos
Protección
claridad
respetar
semanas
Nueva
estipul
jue
##ff
conexión
bovinos
exista
marc
precisa
##ANCI
registrado
fechas
##ες
REC
1979
cotizaciones
vín
intensidad
solicita
reclam
Fund
conci
##zn
Estructurales
mitad
##enciones
139
munici
Serbia
that
bom
##89
##dicos
avances
caudal
##ied
portu
capítulos
Enmienda
siguen
comienzo
##rop
obra
RELA
1981
denominada
recomienda
flujo
domicilio
forman
transitorias
##orden
voor
pesquero
implica
determinarán
##iw
##iste
121
subcon
Financi
satisfacción
##fes
comportamiento
##53
##ish
ajustes
##ATT
sometidas
##óç
intervenciones
##CIP
poderes
elimin
##ster
dosis
marítima
##enza
lev
notificaciones
constru
negociación
errores
matra
formal
destinos
encamin
ARTÍCULO
##ass
##adura
##egr
Estra
tensión
disoci
wh
##83
##GU
residentes
perturb
##wn
Sólo
áreas
##ration
concer
compatible
##ole
figuren
APL
bus
##ductos
60335
sue
##éf
limitación
Bosnia
##echn
##ovina
espesor
embalajes
asis
Ge
fiebre
##ingü
##cosa
recomendación
retro
propias
##ary
Da
Qu
##áticamente
diferenci
irregularidades
minerales
##tegr
Equipos
descarga
independientemente
asistida
vul
##ές
consolidar
dilución
artic
mens
cualificada
προ
particularmente
decidirá
habil
opción
tierras
interlocutores
Cen
Fischer
mostr
##com
arrend
Indic
capitales
OR
##86
##αρ
##εν
##alizado
especifica
##ejo
conec
revel
resumen
recipiente
generalmente
pequeños
aceler
denuncia
implan
establezca
recop
desplaz
preparar
Asuntos
manual
1982
MAR
##dum
##NEL
cultural
destilación
##ní
##ómica
variable
acompañado
Observatorio
terrorismo
Oper
pilo
amplio
infracciones
tractor
##ół
Canje
disolv
satisfacer
ocasión
ou
porci
184
entren
convergencia
completar
##ómo
alcohó
##ilandia
fusión
Prim
cifra
##erna
##istán
pul
hierro
fijo
acogerse
Boel
Ácido
pescado
ferrocarril
state
XII
ques
contar
CO2
respectivas
##quí
debate
determina
realice
subra
volúmenes
puertos
GASTOS
definida
basados
Monten
Estrateg
##GO
##elles
favorable
##perdi
matric
estableció
expresión
Nacional
depart
dotación
integran
glu
propa
clases
Red
anterioridad
vinculadas
sales
error
Fil
secciones
resultante
celebrados
clasifican
vein
sustituir
artes
Oc
##aras
119
siete
##poco
Montenegro
##IAS
decidió
pensión
##zol
##idados
descu
hist
##rific
tubo
sintéticas
dará
126
##ésimo
A2
##itros
Procede
pudiera
Franz
acondicionador
incompati
seno
voto
patrimonio
##eamente
considerandos
higiene
véanse
##σει
dict
actualidad
frutos
##éptimo
deterior
147
multiplic
Cam
Uru
##ÚBL
Solución
XI
extracto
##ities
##uk
##mites
instancia
aplicadas
114
##uvo
Carta
Mariann
από
representativos
Deberán
edificios
Aplicación
codific
##LB
normalización
1983
filtr
habría
definitiva
900
resolver
resultar
##perdicios
Algun
oportunidad
utilice
desinfec
Estrategia
##genos
##TIF
freno
##orr
socio
efectuarán
vertical
facilitada
compatibles
dim
##RA
##pañas
Uruguay
necesit
PARTE
PROCED
##ires
obligatoria
diversidad
##tones
tarjeta
errad
indicador
apropiados
ejemplar
##oca
Normas
##nam
constitución
llevarán
consultar
reex
retención
concretas
pertenecientes
für
estaba
##ógico
numeros
##lace
cliente
Política
1984
encargado
rúbrica
Añ
rum
Merc
éx
##incu
movimiento
tarifas
POL
acompañada
##ACT
considerablemente
saldo
##lán
COD
entrar
fraude
Bal
mos
deposit
##IONES
##mes
1255
representación
siguiendo
Depart
radiac
ocasion
análogos
BCN
##iabilidad
adjunta
cél
##IOR
excepcional
comunicar
adjun
flexibilidad
##ífico
fol
##quese
señala
##ELC
Tal
temas
Entr
introdu
privados
##ethyl
116
solicite
1968
titulares
fácilmente
AELC
ens
matad
308
salv
rápidamente
atañe
bac
viajeros
gobern
diplom
##anzas
Mundial
##arma
campañas
Ter
##mite
##quinaria
Bras
urb
##iencias
redon
Orientación
mensaje
márgenes
pun
##Hz
conden
imponer
##get
especificado
móviles
racional
320
apre
adecuadamente
produzca
##últi
españ
fresca
bet
##ANS
##aril
calibr
Cenelec
##bro
##izador
##quit
clara
eléctrica
lleve
των
##mal
##ins
telecomunicaciones
obtenidas
estimación
sacrific
fitosanitario
BEI
##total
##capacidad
correo
Land
Go
aprobará
##onesia
##xx
##iso
cerdos
opciones
##alizados
210
foment
inmo
realicen
ges
Fundamento
aeropuertos
utilizarán
médico
DI
Comp
127
Decisiones
##VEN
##tuales
salvaguardia
herramientas
considerados
3223
##tano
adquirida
##sto
aplicados
##alidad
protec
contenedores
##ispens
##été
reembols
contempla
GATT
Acuerdos
múlti
declarado
##efe
participante
válido
Subtotal
aband
volver
##ota
presupuestarias
franc
##sas
ofrece
ass
caja
##fera
adopte
devolución
sk
##87
seguirá
MA
delincu
##favor
Publ
##zan
##ándo
positiva
##uvent
descon
haci
cloruro
arch
mucho
corrientes
dens
realiza
##tionsgr
##ορ
quedar
##yac
##apón
símb
##zegovina
##ónico
##amida
éxito
##inc
invit
##íquese
Libro
auxiliares
muchos
##tenido
mayores
distor
##ITÉ
##imetil
espacios
aloj
transvers
municip
incub
##entren
Eurosistema
Especial
placa
industrias
Extrac
##isen
aportar
penal
##λλ
conjuntos
señales
absolu
absorción
específicamente
receptor
##ígraf
Herzegovina
SIS
Mol
##zación
bienestar
encuentren
discrimina
##vaca
enfr
internas
ajusten
macro
Eg
var
##ométr
retrib
consenti
concedi
suprimidos
Clase
Do
let
##institu
manipulación
supere
culturales
destac
##σης
ingredientes
##ipe
##ulsific
Intro
perfil
##uscos
##etilo
##hídr
##MI
PROP
##tilización
124
##ITO
pudieran
##rupción
##ÚBLICA
het
##entalmente
velar
asilo
mediciones
County
desfavor
internos
muta
excluidos
adjunto
inclusive
Fu
seco
##ól
positivo
fabricados
rebas
302
nombres
##ológico
##ulsificante
Franc
##ulados
votos
hombres
adaptaciones
calculará
asegurarse
##NB
simple
votación
von
##ste
INS
##ής
peste
alcanzado
dictámenes
determinarse
Repres
accidentes
##EMB
admisible
cubiertas
Parti
που
mód
mas
campos
distinta
Albania
adaptado
##bar
concesiones
estructural
##IMIENTO
cobre
vacío
deficiencias
not
alquiler
multilaterales
matraz
ocho
cooperaron
minim
observa
oportunas
genéticamente
LT
XV
##1000
auténticas
jurisdicción
tabla
##óvil
corresponder
PRIN
##idado
medianas
cumplido
territorial
##ck
reducciones
PTU
##tino
Zona
will
estuv
ano
indispens
montaje
variaciones
cualesquiera
caucho
αν
##97
directiva
##eles
costa
comprendidos
prohibir
Gen
##illos
prolong
áng
aprobados
flujos
practic
estancia
140
consecución
vacunación
Ín
silvestres
Categoría
##ienta
recí
iguales
embr
reconocido
África
##tocolos
provisionalmente
recípro
later
especificar
sacarosa
sum
artificiales
COMITÉ
participaciones
##cepti
Federal
pur
facilitará
garantizará
disociados
comba
##char
REPÚBLICA
fosf
##PEC
##oras
##ioni
137
confianza
articulo
##tonces
ceb
provistos
NS
lingü
nos
fuere
PC
aroma
Pré
hall
tram
hidrógeno
microorgan
delincuencia
tratar
anualmente
under
##bu
PRE
requerida
##dziel
##icia
notificarán
regulares
entra
terres
antigu
incrementar
pie
##ος
cep
να
inten
##ínas
favorecer
Datos
cables
habrán
moluscos
##101
considerable
movimientos
gub
##υν
veterinaria
eléctrico
vuelos
protocolo
describe
cara
##ok
desechos
trimestre
##ímetros
trabajador
combustión
vegetal
##ów
transe
##our
##NO
lotes
demostrado
εν
expresados
##hidro
oeste
##CS
##ην
conex
##ómetro
audio
Ayudas
aj
cero
##efac
manifes
West
##ACIONES
recogidos
piloto
##osos
EST
mutua
are
Regional
canal
dinám
CENEL
268
CENELEC
Sh
fiabilidad
deroga
disf
135
##magn
aprobar
BU
Ken
clasificados
fuego
DA
##óp
##ICOS
Exp
Mil
allá
##cientes
permisos
arras
##tirá
prelim
establezcan
consideren
337
##uventud
asim
estadísticos
##cop
##alizar
Dichos
PRINCIP
tratados
visados
##reza
LE
##eramente
prz
##ments
Australia
metodología
##FIN
##anes
dell
##wo
##raj
supuesto
discon
610
##ät
bro
Sud
amino
indicarse
##onato
sensibles
fécula
##irman
reforz
Má
##tren
134
##endas
##chaft
för
carg
mantenerse
NH
bl
eléctricas
sensibil
##lectual
##fique
calefac
anticipada
Añad
consentimiento
Ne
aras
conceb
138
concretos
##CC
##itr
143
611
redu
ordenador
##berg
##TEN
preparaciones
ponente
Ello
impac
entonces
aids
##letes
expresada
refuerzo
Vic
impuestas
agencia
fuerzas
##terráneo
forestales
##ises
sín
reparto
descritas
domésticos
claro
leyes
cómo
exámenes
##iles
sufrido
Div
discip
empe
Prést
mix
##éricas
encuentran
Mod
493
EXP
TAR
precisar
transeurope
od
187
##ENTOS
epígraf
##Pa
##org
##loven
productividad
185
1006
Presidencia
180
297
nocivos
Entrada
vers
Caracter
175
##OGA
Federación
111
investigadores
erradicación
testi
211
espectro
France
Cre
##nung
pregun
planificación
##ína
asientos
podido
ejecutivo
envasado
contraídos
comparables
gubernam
700
ed
arancelarias
cár
##cer
##rogas
##rael
asignados
με
basarse
permanentes
produzcan
Formación
A00
participen
coinci
futuras
og
##stra
##toras
intelectual
geográficas
siemb
##JE
negativo
concluye
cofinanciación
veci
transbor
electrónicas
##ισ
##versiones
Cif
lleva
Base
##AE
##OD
##venciones
169
Deben
párrafos
spp
acceder
##ley
evit
crist
he
##fal
embarc
elaborará
asignado
Fundación
ár
##dores
##ídas
##grafía
##ítico
TRANS
agu
inmun
casi
semana
Podrá
##ets
161
##ISTA
bruta
tejido
Misión
FEOGA
disfru
ER
##ondicion
formularios
faculta
##ystem
équ
deud
lamin
##ane
tomado
divid
intracomunitarios
ejer
1493
demas
notificar
corte
planos
cuantitativos
desemp
menores
concentrada
detalles
cálculos
Indonesia
spe
contro
157
##atél
notificados
regulan
FINANCI
ago
eng
gracias
Decreto
pondrán
Instituto
Fr
this
uva
##cusión
consideraciones
institucional
hoja
##xy
129
exclusiva
Disposi
Econom
##rado
almid
presid
Tailandia
afr
luminos
253
curva
exactitud
Préstamos
siembra
##orn
Inversiones
gobernanza
inventario
##ści
hagan
Impor
detectar
toxicidad
Material
embriones
για
neu
automóvil
destrucción
##ss
calzado
1971
variables
garantizarán
traducción
##king
revisado
Definiciones
treinta
Determinación
jar
##use
Personal
Cifras
Leg
sh
##BRE
retirar
discontin
PP
restantes
Consul
NACE
Lim
##omas
##uerda
pondrá
##landesa
ED
extender
##dencias
negativos
constar
recibidas
##ημ
hí
Bar
New
##úa
##tiene
correctamente
aeronave
efectúen
FIS
##tilla
podía
existan
hacen
Designación
##tí
##yección
##igen
ejercicios
intermedios
pom
##burg
Cantidad
encuentre
constituido
cabeza
densidad
##quinas
conservar
cualificaciones
Nuevo
enarb
iniciar
relacionada
transfronteriza
garanticen
Aduan
##gra
pared
##urio
realizarán
##munity
##velopment
##ις
desplazamiento
ultra
tolerancia
OCDE
Mej
abajo
cil
##productos
recogidas
from
επι
##flu
pasado
expedientes
propagación
##ky
##onda
relativamente
aprobada
reconoce
##iéndose
cuan
##tram
dejar
ahor
##acul
##ony
vigésimo
básico
compuesta
132
cuadros
ruta
abierta
Groen
Bre
eG
##sch
seca
reconocidos
##áps
accidente
transcurrido
gramos
##iro
exhaus
afectan
##ational
expedir
ruido
plataform
AF
C10
produce
131
vit
reconocidas
porcent
Equipo
pH
desh
electromagn
concern
directos
exceso
##cida
ré
##pes
##cidas
##uno
Contrib
caza
orgánicos
atra
impuls
cerca
dada
lac
##ANDO
indicativo
prohí
previsible
desperdicios
cubierto
amonio
participa
Efec
caliente
descritos
indemnizaciones
indeb
##uts
##GA
##ocar
Ingresos
futura
cámara
520
pat
230
porcentajes
prescrit
Contenido
someterse
acumulación
procur
##ERC
##tutos
armonizadas
representativas
llevado
potasio
##din
aprobó
actuar
prorrogados
iz
##FO
##brado
inscripción
interesada
tendencia
inmediato
células
Río
2454
##ONAL
negativa
cultiv
##acha
Servicio
152
revisar
aftosa
##ska
##rática
complementarios
completamente
explíci
farmacéu
Groenlandia
##tamiento
##ih
##ées
Podrán
agrupaciones
desempeñar
Pesca
##gl
hex
tomadas
porcino
satél
##RES
Aparatos
607
elaborados
depende
almacén
##aderos
latitud
##ursos
denunci
invern
remitirá
620
##hol
##isten
requieren
Spół
##bus
##unda
expedidor
carbón
reproduc
hectá
##TAR
discre
mutan
estadístico
próximos
BA
##hib
##onom
##ESTI
analizar
mam
estados
medir
sustituyen
registrada
encuestas
descentr
ban
IMP
fax
funcionario
restricción
##ícolas
mutandis
##diendo
mutatis
cierto
##ernas
arrendamiento
integrante
integridad
extremo
televisión
Empresa
applic
sangre
metros
medicamento
óxido
##tistas
estaban
Registro
##ósito
subcontra
entes
emisor
HAN
L03
lectura
##alari
##epres
calificación
pagados
pil
##cz
suplementarios
##ém
directas
neta
##iffe
variación
pagado
esperma
gobierno
##tero
##soactivo
nacionalidad
384
válv
tecnológico
Atómica
Limited
##zados
##ast
provin
válida
patatas
##íticos
##ADA
##ALU
Gasto
##ilados
constat
##ufre
##ean
placas
ferroviario
rectificativo
hon
##wi
posesión
magnes
humedad
Nr
análogo
llevarse
simplificar
10000
mejoras
incendios
MT
contenidas
enviará
aislamiento
##ade
##strucción
##iron
favorables
Objetivos
Sur
##ómetros
##icht
legislativas
##ak
aditivo
sello
##orde
Unidad
suministros
externos
##ementa
174
polici
tripulación
suspender
Definición
cisterna
reciente
609
mono
optar
copias
sufra
espir
consolidación
net
nie
149
asalari
Unit
quedarán
Ámbito
##izarse
transformaciones
Israel
Antigua
Características
UU
##EX
##anz
141
fijarán
incorporación
##ydro
##institucional
##ele
172
perfeccionamiento
##umentos
trip
aprue
circuitos
Tar
224
248
simultáneamente
##asia
203
ganado
caracteres
GRÁPH
audiovis
GRÁPHICO
transmis
Constitu
especificadas
##UPUES
##ATER
line
paque
recicl
clasificadas
SOBRE
ficha
##umo
informáticos
exposiciones
aceptado
meta
mixto
pobre
##úrg
Sus
tuvo
##yz
##ister
reconstitu
designar
solv
reconocida
definitivas
desea
proteínas
TIC
representativo
Nivel
PI
cisternas
##igura
entregas
Ins
cumpliment
1974
carbur
frescos
adher
mantendrá
PRESUPUES
Bol
##mio
Producto
SOL
##acao
torno
##tri
##ans
comentarios
million
ambientales
κατ
##ella
adh
170
##idores
subdi
Lugar
ilíci
obstacul
Raiffe
Raiffeisen
afecten
hábiles
##pra
318
sustituido
fortal
monedas
ilegal
debía
Taiw
EV
Iden
##andes
Aceit
##IDAS
gripe
adaptarse
adquiridos
conducción
Informarán
inmigración
armonizada
cruc
nor
deven
##ector
pretende
ram
denominados
CER
Of
##hex
158
transparente
cláusula
calefacción
aiu
##2O
informado
franqu
##ivileg
reaseg
##éfono
##fines
generación
tomando
inmediata
Carb
renovables
plurianual
EM
##ures
Compe
confirma
granel
extractos
##tificado
##ingen
pp
##icana
traslad
Índice
##esta
appro
144
##cara
longitudinal
Gobiernos
división
##adhesión
arbit
solicitada
##ATO
adjudica
dirigidas
turismo
##tría
##ika
aeropuerto
US
fijos
basadas
aduanas
alimentarios
trabajar
civiles
urg
detalladas
indirectamente
debida
COOP
pureza
contabil
producida
PRODUCTOS
cí
##tn
opera
confirmación
##bol
##osan
cartón
liberación
Clasificación
340
resoluciones
inversores
Ambi
Pide
delimit
calent
Versión
AUT
He
##ECH
tampoco
Cent
seguido
##ungs
ventil
Japón
##kas
aportación
##agr
##turados
llegada
remolacha
kW
tetra
transna
##ORES
##cis
equit
legítim
##inales
marinos
resulten
afectada
designada
##σε
##tividades
##elación
azufre
##cidental
posteriori
ofrecen
Taiwán
formular
tema
dudas
expresamente
OB
##ístico
figure
facultad
##tariat
Mer
##bric
regularidad
transacción
alegó
web
limp
aumentó
Brasil
401
Gestión
impli
524
exceder
gase
151
propuestos
sometida
pequeña
quince
monetaria
contractuales
Articulo
##ents
##blo
positivos
ec
kon
comprador
delegaciones
discontinuas
consideradas
seguirán
neer
##íctim
##NA
deduci
estimaciones
Pl
##τι
##itales
155
ratificación
Zel
publicarán
alternativas
##taña
acre
Eslovaca
CP
Criter
##ulsión
##umin
ambiental
LO
##ety
Malasia
básica
puertas
OMG
which
pobreza
ácidos
hogares
víctim
##ífer
##úp
##ision
##uld
##020
aceptable
espum
digital
litig
équidos
een
##illo
Chile
##tilo
##ecuencia
publicada
justificar
estima
pronto
##idem
##ace
menudo
elevados
calibrado
deshues
llen
oficinas
##iter
649
post
consolidad
##imas
experiencias
netos
cultura
##curs
abre
##τη
ovina
pató
##licas
equipados
LU
juventud
sostenibilidad
propietario
combatir
##TAS
exentos
titul
atmosf
ángulo
séptimo
tradicional
mantiene
firmar
bultos
##enca
suc
##ietil
agrarios
##ples
anticipos
habitual
desnatada
bel
irá
justi
##ÁN
##ecido
176
importadas
distingu
ventaja
significativas
Acondicion
llegado
DEFIN
divulg
integrados
proponer
abonos
futuros
breve
degr
##ess
Emulsificante
Spółdziel
##stro
auten
Traba
operativa
##ebra
inversor
almidón
Lab
COR
Sel
##lina
162
189
decidido
fije
extensión
Represent
impresión
##ordania
Sectores
probabilidad
maquinaria
##pecto
EPS
##tora
##ische
unión
programme
refiera
1973
especializados
actuaciones
Preparación
Belg
enarbol
##any
recibo
##etato
aquí
CM
##del
automático
Transporte
Ensa
146
181
2913
Verde
índices
sólidos
espirit
preserv
evac
concretamente
pequeño
extranjero
arrastre
Aplic
extin
plomo
##IDADES
armonizado
coeficientes
sentencia
##tipo
sinerg
abar
##POSICIÓN
INFORM
##yendo
Cál
privileg
indicando
cosm
concluyó
2658
impreso
horizontales
visión
##τικ
##rantes
2377
propósito
despr
comunicadas
energéticos
SG
##inst
transposición
continuar
Hay
cláusulas
214
ADMIN
comprobado
clasificada
legislativo
localización
Zelanda
##VA
153
antelación
confidencialidad
preocupación
Pas
comités
208
##ender
adapta
suplementarias
perspectiva
ide
nues
espirituos
Il
##ομ
##ond
##tirse
##úpulo
Acciones
considerada
Klas
sesión
preadhesión
corta
fundamentalmente
incorporarse
producirse
Ambiente
030
##PAR
denegación
Agrícola
satélite
invernadero
exenciones
mercurio
perjudic
añadirán
hubieran
memor
informati
gratu
##cen
##ría
absorb
feder
##iber
miras
transformar
##ificar
circular
##vin
someterá
sg
armonizar
encuesta
blando
familiares
zoosan
hin
refug
recibió
vagones
GM
interac
investi
##005
##egue
Inclu
624
automáticamente
externo
##yeron
##rad
discapacidad
credi
pin
cajas
operativas
residuo
aprobadas
inmuebles
sobrep
dispongan
convenio
je
##rag
integrada
afirm
excesivo
Me
S00
Tecn
##FL
residuales
##INO
##idae
experiment
energético
false
indirecta
dal
limitarse
PAÍS
escrita
transversal
DEFINI
ima
contend
producen
intercon
tramo
conducta
remolques
abarc
sectoriales
beta
suprimir
botel
híbr
mis
##äl
últimas
estabilización
percep
suscepti
adver
CIEM
Apo
##ega
Concentra
regulados
derogado
##olina
##istentes
##áceos
limita
agrupación
democra
##toría
acta
##eth
301
##ceso
aduaneros
intermedia
admisibles
Mel
bajos
movil
concedidos
Agen
##viso
litros
##alth
##alizadas
pesqueras
islas
modernización
Hol
OS
nata
Rev
acepta
etiquetas
billetes
it
##emen
228
750
NEW
##ego
##CID
subyac
pleno
especificación
epidem
Artículos
##var
##eck
##σεις
Koso
bos
##ipto
cabal
Ak
over
misiones
##ído
##ída
##adera
delle
##uesa
financiadas
recibida
fracción
malla
Bases
respetando
privada
filtro
encargados
macroeconóm
aromatiz
MATER
SV
aver
##tm
insuficiente
sucurs
coun
Kosovo
TAC
##eléctr
realizan
funcionar
GBP
Société
ADMINIS
acompañados
privadas
prendas
##iendas
barcos
describen
##ps
##trico
potenciales
TARIC
##lica
médicos
detallado
rápido
declara
548
redacción
honor
##τα
formar
pudo
Principio
730
##QUES
recor
expresa
ní
##tives
existir
##izantes
##versión
404
requerido
climático
Sir
confec
planta
organizada
compensar
mutuamente
HU
##ίν
##encil
2200
##pira
señalización
##ITAR
Norma
térmico
Añadir
Fo
other
comprensión
conflictos
Tam
rati
##elle
adoptados
envíos
oposición
vencida
amenaza
APLICACIÓN
hidr
próximo
LM
ris
##ται
expuestos
pasar
celebrar
##idan
##ila
##laciones
restabl
1605
certificadas
extraordin
algún
abordar
pastas
acordado
alojamiento
##TH
##403
vinculada
Dentro
Rod
##ucar
##POL
acús
disper
2011
167
pliego
##romo
expuesto
incluyan
intermedio
matadero
múltiples
och
##BI
recientes
##TIVAS
1966
neumáticos
gubernamentales
jub
##500
fund
ligeramente
Introducción
plas
2204
##genier
Artic
desempleo
enz
compras
##deo
##sor
inicialmente
significativos
externa
contractual
##by
2081
correspondencia
Asia
##dría
##tto
##jar
##TM
##ame
registradas
transmitirá
congelados
paralelo
demasiado
ME
##isation
##trás
impr
catá
excluir
DEM
duplic
expedida
razonables
##UESTA
wy
desec
denegar
Criterios
cumplirse
flor
ocasiones
Cálculo
##try
cobro
plá
Sustancias
repercusión
Vicepres
Aus
comprendidas
Rumania
comprometer
Democ
indispensable
Particip
catástro
sider
prevén
inscrib
descenso
Classification
lúpulo
enlace
transcurso
alegación
528
pantal
alcohólico
Ah
manip
tendencias
TA
205
100000
ejecutar
naveg
ce
193
expresadas
calcula
dirigida
cometido
PROCEDIMIENTO
rap
##todos
estable
##bricas
reducida
##ii
##eld
##TIN
alumbrado
1C
IR
creciente
hidroxi
epígrafe
litro
##antil
naf
rumbo
Tún
##tte
escol
dióxido
350
capaz
gravedad
vulner
GL
MOTIVOS
##ün
Figura
King
cás
##ερ
##raz
142
recientemente
recaud
francés
Oblig
##ça
confirmar
Council
CLAS
Extracto
ester
186
pone
gestionar
Limites
Flu
##jan
alias
relacionado
Puede
símbolo
antic
##och
##ordar
fuerte
género
ub
##inn
##rev
financiados
asci
servir
clás
dependi
847
EVALU
Gr
##rar
Aliment
cosecha
matriz
Ben
SK
1049
national
manufacturas
##hídrico
##omos
garantiza
sectorial
reciba
##sificering
Koncentra
Klassificering
dimetil
cualit
rutas
Koncentrationsgr
##ROS
177
256
agro
cuerpo
degrad
##ETH
secretariat
Air
Jefe
##ware
verdad
empleado
llevan
##ATOS
##éster
anticipo
2309
visitas
CNS
Af
cesión
hecha
##BA
incentivos
Operaciones
cá
235
##ICE
abarca
tratamientos
concluir
##uktur
expuestas
naval
##LAF
duda
institucionales
bilateral
deterioro
cárn
SAN
327
azucar
adquirido
EXPOSICIÓN
umbrales
migración
tarde
habilit
metilo
##οι
vinculante
sobrepasar
concluido
##stal
advers
transmit
##thor
correcto
transmitir
512
darse
ses
##200
##ön
cubre
peri
179
visible
##TROS
continuidad
cotización
adjudicatario
##bano
##PI
emitirá
explicativas
##mark
automóviles
##ίου
##έν
ordin
normativas
homologado
asociadas
justificación
reba
168
solicitadas
desembarque
tribunal
participan
tarea
velará
Emol
Ronda
EXTR
suministrar
atribuidas
rodante
Emoliente
Punto
##cimientos
##astos
quede
cuidados
sopor
##denes
trenes
pied
sujeción
científicas
concedió
United
5000
agreg
recoge
larga
##LINE
sitio
221
##BLES
cese
inad
##low
conflicto
##idaridad
ajena
Máquinas
##IST
ANNEX
CZ
impar
173
280
dura
aleaciones
semin
##ijan
influencia
ONU
##PL
Europol
##ITOS
0709
comprendida
reducirá
penales
##patibilidad
##LAND
CDR
Dist
previas
##0100
obligado
contribuirá
tecnológica
225
284
especifican
IND
comprobaciones
incorporado
##kos
information
residual
##ANIA
##prd
añaden
domin
Georg
cruce
1103
hacerlo
eventuales
PRINCIPIO
hos
432
contactos
##USTR
Organismo
Métodos
pedir
Jo
##uelas
aler
Promo
exportar
##011
textil
frecuencias
Raiffeisenbank
Av
##hn
##ónica
diario
Referencia
agrarias
francesas
ahorro
lin
##9000
1766
permitido
producidas
hidrox
encargadas
efectúa
##eae
Previa
Túnez
teór
##tich
aisl
##dole
aparición
##heim
obtenerse
tóxicos
tracción
avión
grados
##mparas
suplementaria
Sing
##ham
606
químico
vendidos
enteramente
eficiente
##yar
##stancia
##unción
##etta
Segu
frag
##idina
##uela
201
capaces
regularmente
colorantes
effec
cáscara
165
215
Trabajo
##pié
hinca
BR
aban
ponerse
hincapié
OLAF
cerc
##fu
desembol
satisfactoria
encargada
retraso
notif
232
240
inspectores
barr
liquidez
Vehícul
Pe
##arg
delegación
ingenier
##cionada
Conform
homogén
pir
##wy
mobili
1602
decida
polím
entenderán
remolque
ein
##íp
financial
##rump
including
definitivamente
transfronterizos
propietarios
##520
##ides
##umos
##ápsula
eb
##mina
358
enumeran
influenza
intervalos
defecto
Instrumentos
IP
OP
aa
GENERALES
pis
##roc
154
Actividades
signa
Commissione
magnitud
imposible
##TUR
formalidades
válidos
microorganismos
##viv
inhal
exentas
prestados
disponen
capitán
##romato
encendido
transbordo
##nal
##chap
##ciliación
refrigeración
##QUE
##chen
##vern
document
##OLOG
trá
##ERO
procedencia
modos
significativamente
electromagnética
franquicia
sgb
cuál
term
##ements
391
MÉ
cualificación
245
Def
pieles
##ironment
hl
mus
##ją
##iga
arran
emplazamiento
verse
quater
##iana
correcciones
##tivin
subproductos
abrir
precisan
##TICAS
vivo
206
grano
prorrogar
rechaz
tractores
rellen
convocatoria
Algunos
##tanos
uniformes
hip
##ła
iniciales
ONG
Vicepresidente
##INA
Polic
Período
reciclado
Acondicionador
hechas
##lex
NEWLINE
50000
Za
salarios
competidores
EJ
Via
##ypr
apell
166
##atorias
Respecto
metálicos
164
transformadores
despo
Conse
determinan
reguladas
realidad
m2
##rid
##ñé
desac
2012
##IDER
ocu
íntegr
Conclusiones
##dumbre
histór
CY
Ger
vesti
##GAN
recab
inval
nueve
obligatorias
físico
vitivin
delantera
encaminadas
Puesto
SH
zu
##ors
parc
##emato
Partida
estudiar
fundamento
elegir
quinto
##LM
##EA
Inici
libres
0808
##áu
262
proporciona
fluor
disolvente
tera
esque
##urales
anunci
determine
obligados
##ugh
##istirá
módulo
RNB
aplicada
##eja
capilar
ajustar
confirman
comunicado
L20
National
##gem
##unas
interinstitucional
202
Proyecto
indicarán
Solici
quienes
OBJE
IG
##300
##rául
##SO
##dil
##ibración
1104
refieran
9900
viscos
refleja
Documento
atrac
bon
importado
menciones
continuo
introducido
AZ
Kar
##fiquen
##ral
derivado
viajes
1969
159
Chem
Viet
##zen
agrario
designadas
reunir
vinculado
reducirse
Op
##tecn
##ode
Ministros
consignados
kil
modif
296
LV
impul
beneficiaria
laborales
riguros
540
Mez
195
171
depend
equivalencia
afirma
LISTA
valorización
International
demuestra
tri
mantenga
cierta
AUTOR
espirituosas
ponderada
forestal
##ange
march
profund
complementario
preferencial
EVALUACIÓN
Dip
Fer
##2000
presentaron
garantizada
clorhídrico
##XTO
##amble
bloque
Dan
Fis
Roma
Orden
revestimiento
386
##tandar
desglose
##tem
ann
163
##áí
##LER
##imir
espon
conceda
territoriales
exigido
especificada
combinado
##DUCCIÓN
##ementation
Sem
inn
##igor
qui
Excep
requeridas
Rad
##isa
acuos
publicaciones
recubier
coordinar
liberalización
francesa
imagen
htm
soldad
películas
temporalmente
prohibido
esencialmente
##AI
##PECI
Resulta
Primera
##eso
transportista
traslados
349
expedirá
donantes
alternativa
suprimirá
próxima
perjudiciales
consegu
239
Rot
pomoc
191
207
##aparición
libertades
Komis
víctimas
##ORT
compleja
demuestre
Cul
cón
up
##ances
soliciten
##regn
decimal
##ejas
425
Democrática
Georgia
nm
##ight
traz
acondicionamiento
sacrificados
sensibilización
drogas
##τρο
##ticidad
##talidad
##apur
methyl
proporcionará
##técn
precip
Env
Oriental
cartera
diaria
español
CERTIF
Gal
##gular
arte
tenía
##opol
acompañamiento
##estático
##ργ
abst
autónomos
comisiones
necesariamente
legislativa
FRAN
Hel
Mu
Member
Pon
Véanse
incl
##tuvo
poss
grab
prioritarios
##ispru
controvers
cacao
ade
FT
##erti
##lich
1898
GRG
socioeconóm
magnesio
Pan
puso
##ολ
Argel
Industria
etapa
diox
TAB
VIS
pesc
organizar
periódica
pendiente
##IZACIÓN
provocar
Vietnam
##ore
209
##ogen
militares
rurales
##uus
##itmo
pormen
##ICH
despro
evaluará
Recon
esperar
canc
sug
##ejos
hidrául
frac
Educ
##clo
##ficación
226
requir
causas
excluidas
Ministry
árb
ger
##ótesis
##PR
cosa
progresivamente
MÉTO
FA
Supl
conjuntas
encontrar
Far
Vo
fe
ADMINISTRA
conse
incum
exigidas
nitrato
descrita
constató
##uar
excel
profesión
democracia
##ígeno
##TICA
contenida
frigor
estrech
adquirir
##anim
luchar
subterrán
ESPECI
emitidos
fiable
inflamables
##difusión
##CES
##fice
recuerda
183
Recursos
fiables
estrictamente
aprovechar
División
porcentuales
PAC
##IENTE
##osas
debidas
##guen
1967
preca
parcelas
Bun
Dos
##éricos
divisas
simples
precedente
circuito
Egipto
year
##bal
comunidad
##lucosa
0502
juicio
exponen
Department
haciendo
410
deducción
##cionado
##tricos
cooperar
surg
acuáticos
etileno
Etique
Fre
##erne
subordin
basará
Ministro
##rdenes
##íticas
dependen
facilite
ampliada
dibujos
evacuación
Singapur
##eda
##éndose
##ijk
Principado
Kingdom
RO
##bes
##ULOS
INTRO
filial
##étrico
speci
constituidos
450
provisto
Cl
##IK
etapas
departamentos
INFORMACIÓN
dul
##éí
inac
prescrito
correspondan
BUQUES
Article
##erno
##unt
envej
recibe
oxo
sólidas
deudor
PH
pasta
##tta
anejo
examinó
reflejar
defectos
abandon
##onancia
evidente
336
filiales
confirmado
pasaporte
mensajes
clásica
Cab
##ND
comesti
objeciones
exportado
declarar
Cohesión
comparable
eventual
ba
qual
##oti
223
293
282
##ímetro
chinos
escasa
nombramiento
reúnan
versiones
prohíbe
Ev
str
804
aumentaron
States
frenos
toxic
Madrid
jubilación
gt
##cionados
transf
etanol
sustancialmente
amortización
ebull
##pé
##080
Community
tratado
instalado
##ulosa
contraria
ovino
codificación
inmovil
bosques
ty
sexto
##004
direcciones
autorizará
volum
complemento
suprime
verificaciones
##artícul
##oxid
implantación
cebada
despojos
VE
##rique
pré
##ritán
##rafo
seleccionados
colectiva
efectivos
libros
opiniones
OF
til
##ijos
##ICAS
Siempre
##LEM
##aden
conferencias
194
subartícul
excede
definitivos
razonablemente
cárnicos
suelos
##ciar
##002
presta
##ranio
podían
##úngar
demand
inscrit
construc
Valley
Act
ponga
##CHE
obstáculo
DR
entabl
arquit
fals
licitaciones
ebullición
Firma
lino
##bran
loc
viscosidad
Ka
Tales
##centr
conl
##unales
portug
Compl
##AMIENTO
temperaturas
Contratante
CONSIDER
Επι
iner
##chas
Coton
cintur
Box
NHC
íntegramente
aan
arom
##tz
##iver
capaci
familias
compensatorias
Regulation
402
AV
aun
fós
Establ
Tratados
agraria
contribuye
estimado
##úsque
secreto
fenóm
PAÍSES
confer
1254
salm
Alto
Ref
cabina
estadoun
idi
Producción
Salud
ejemplares
ascend
incubar
estamp
basan
exigencia
reguladora
Cabe
Tub
##ès
jurispru
percepción
PO
##gados
##UCIÓN
##izan
calific
indem
sódico
detalle
ejemplos
atmós
terap
bord
##iece
##CAR
##portación
captura
##enses
comercializados
reguladoras
0405
automática
aclarar
apellidos
##ách
mail
ninguno
Fischler
refinado
Ce
##ός
extens
constituida
silicio
Límites
Instal
solvencia
##iblemente
##UD
comenz
altos
190
verde
Reserv
##CEP
facilitarán
cadmio
detallados
tecnológicos
Apartado
desfavoreci
##ren
incerti
declaradas
completos
jarabe
630
opon
delitos
##ette
##socia
217
dispondrán
357
proporcionada
hubi
Representante
RPC
##ης
##YD
##tecimientos
metro
eventualmente
desplazamientos
Sk
##UER
##tage
impro
formulación
##ordning
##ANA
seguida
observadores
regulador
terrenos
jurisdiccional
Son
compartim
restrictivas
marítimas
##av
sistemática
vínculos
das
##uth
##IEN
przy
Silves
húngar
##όν
##orado
##ome
Compatibilidad
Estudi
##ensor
APAR
alemana
muerte
MON
jo
##λη
columnas
##amblea
Mic
lech
##burgo
acuer
impregn
##etan
constituyan
295
comprue
flexible
hizo
toc
altamente
validación
260
bastante
instalados
recoger
derogada
alemán
epidemi
Cotonú
COMUNICACIÓN
exportadas
cámaras
asalariados
dei
segura
Haya
ingles
tax
Belar
universidades
depor
pesados
sustituida
SEG
ecológicos
sólido
Sto
##emos
desmo
enviar
MEDIDAS
viviendas
poliéster
Fuente
PROGR
preferenciales
techn
teléfono
muchas
necesitan
EXTRACT
##raciones
resum
##acji
311
##tacion
eficazmente
oxígeno
redonde
##ulla
fertil
impone
##ublik
colocación
colectivos
retrasos
hipótesis
cen
##gs
intra
##triz
392
aci
##dición
entró
##ants
exigidos
facultada
conceptos
carburante
Silvestre
MAN
Ún
##áv
clari
avance
exigida
auditores
##thyl
GENERAL
kom
órdenes
##idió
procedan
entradas
##IDE
trimestr
benzo
neutr
30000
baño
##ua
##habil
299
milímetros
estudiantes
τις
consigna
intelig
demostración
edul
sz
##cprd
contratista
Union
calcularse
subraya
salvamento
conexiones
masas
comen
##tería
##tillas
conductores
introductoria
560
recol
medias
393
##canes
new
calculada
accionistas
Volks
cambiar
##kasse
exija
CONF
posterioridad
consistente
fenil
Cir
pra
##orias
estaciones
##TIL
##IDOS
##box
clasificarán
sulfato
##fenil
##DOS
cum
subco
Generales
emitir
suponer
biodi
CS
##tuv
afectará
raza
SE02
deliber
##istente
Actu
roz
radiodifusión
Post
9A
CAL
##cletas
cobr
necesita
1964
incoar
1249
265
licitador
fraud
admitidos
Agua
FUN
rom
##mentación
Quedan
implementation
Dispositivos
rég
siga
bovino
Antiestático
##lántico
PROPUESTA
ultraper
233
segundos
publicar
fiscalización
posean
empresariales
##IDA
proporcionadas
causar
artificial
Líbano
afines
trasera
multiplicación
mandatario
infeccios
ph
##yentes
##hic
invita
calcio
##cidentales
aportaciones
aumentado
##úsqueda
gall
its
##tés
##reo
protocolos
action
debían
adul
227
659
telef
terminales
clínicos
##íferos
##éticas
nacido
##queado
característica
protegidas
preferencias
abiertos
##úrico
Dubl
cromato
mi
##kon
##tie
case
efectivas
persegu
Argen
cursos
familiar
Road
##rito
##igilancia
técnicamente
observar
artikel
intermediarios
supervisar
harina
soldadura
gro
##aa
derogar
cerci
exigen
concentrado
Ges
SERV
##tér
##upe
##teur
expan
salidas
vendido
extranjeros
Vari
cable
fus
##arm
funcional
adecuación
embarque
HOM
horm
ví
##utación
##eling
Conserv
economías
0403
Capacidad
geográfico
David
##faz
3920
INV
pieza
clasificarse
explosivos
hidróxido
##ení
##altar
informático
##tima
prime
tenor
asumir
gradual
britán
periódicos
##ween
Balcanes
embarcaciones
Vehículos
SUS
retos
##ieve
homogene
plátanos
##animidad
uranio
##iféricas
referirse
justificada
acontecimientos
rentas
unanimidad
231
expedirán
brev
numerosos
cosméticos
Bundes
INTRODUCCIÓN
falsificación
##oria
reu
consonancia
modificadas
1501
concederán
cuadr
competitiva
desembar
kPa
##ÚN
310
229
366
registrar
negociado
violencia
Basándose
Ela
inj
##ulina
incorrec
SOCI
desviación
511
Dr
##ling
descan
Spar
##wie
##υμ
20000
permanecer
protegidos
sobrepase
Alimentaria
ci
##éó
##arty
Comités
impure
previsión
Deuts
afecte
##érico
sexo
flota
GU
Pac
cán
negocia
Brus
vestir
##AP
inyección
carr
explor
##ógicos
prácticamente
amaril
satisf
dinero
##TROL
Tom
have
simplemente
antiguo
FISCH
inglesa
Ol
##edu
##activos
##EROS
precin
##medio
estrictas
atendiendo
preliminar
representativa
blanqueo
sensibilidad
estratégico
alcal
##imento
comunicada
##ski
AM
Ham
##OV
##írit
deducir
enten
relo
##igh
satisfa
OMI
debates
edulcor
##íritu
útiles
##raje
declarados
visual
asignar
concreta
remuner
envejecimiento
CONSIDERANDO
manag
entran
Exteriores
matrícula
introduce
Human
##FC
interv
revoc
periódicas
elegido
digitales
repeti
##tramar
alerta
abander
TH
oz
ras
radiación
surtirá
##glucosa
Elec
determinó
sane
equipado
tratada
formado
##UNA
##ources
##ami
appl
marino
Acero
constituirá
Deb
allí
tribunales
caprina
##junto
##culas
##ERG
Objeto
suplementario
XXX
μέ
##ibre
Congo
importar
216
aceptadas
azúcares
reglamentaciones
biológicos
requirente
PM
##aduras
##ratos
##ínea
respondan
observancia
separados
Órgan
resta
probablemente
devolver
ferroviarias
siderúrg
ami
##inea
##ument
preverse
plus
##aja
fronterizo
##alao
##fé
##áfrica
##FR
pongan
meas
espíritu
acoge
nitro
federado
ultim
##ourg
París
superviv
provisiones
derivada
faciliten
restruktur
ovinos
matriculación
cristal
luminosa
enrique
controlada
##TION
ésteres
9200
##elosis
italianas
jurisprudencia
Belarús
Argentina
Pacto
παρ
##uden
##aginos
borde
FEDER
Volumen
Demarty
Tor
##schaft
##war
inspector
recogen
profundidad
inneces
##ñï
Nov
resultan
##endió
mantengan
EEB
denominadas
##ουν
Sector
palan
hol
##σχ
##paci
conces
##END
solicitó
##turado
Programas
NAFO
disminuyó
Sudáfrica
vitivinícola
##neración
##lexión
##3000
##irts
St
sor
##dida
##In
##osta
##oni
ingres
empresario
máximas
avec
distinción
Fac
σε
##ých
DEN
articolo
desprende
sch
##teros
alla
##icina
comerci
autorizarse
##ική
plantea
accord
OBS
Sit
##ker
escas
marcos
luc
grieg
Tox
minister
lanz
pilas
Hid
##eden
##etrol
granos
Ejecutivo
Subvenciones
mortalidad
##eses
292
Indíquese
Garanti
cerrado
voluntad
##ριθ
tuvieron
paredes
bruc
use
307
##apas
irre
Certificado
Vis
##uez
##ARIOS
Alim
vacunas
destru
Kommission
patata
Identificación
##lora
esco
Paris
frío
juz
extrem
isoglucosa
universal
degradación
memb
##eira
##ectores
Adhesión
Maur
individualmente
índole
reconocer
instaur
315
apoya
articul
grasos
ETSI
motivada
##kning
##kistán
law
portá
perfor
desaf
##ierra
formen
Vistos
Brux
Poli
examinado
article
disciplina
cónyu
Blan
déc
##ons
reten
##ungen
281
optim
usados
protegida
compensatorio
Coste
estrechamente
FISCHLER
##ÍAS
##ÁL
prevea
diverg
excluye
herb
Os
SN
dr
estando
caña
causado
logrado
auténticos
agricultor
lámparas
válvulas
Pal
##υτ
Comision
1101
243
##visor
dispondrá
llevadas
incisos
requiera
exacción
##lomer
numerosas
Brussel
Foro
συν
##eme
##tato
acetato
antí
prestará
##gráficas
periodi
contendrá
seminarios
alarma
CONCL
designe
licitadores
ciudadanía
diseñado
flexibles
sospechos
lavado
asciende
comestibles
Audi
Det
gobiernos
system
##orar
suscrib
317
222
Espec
obligatorios
integrar
vínculo
atmosférica
Jordania
V1
pad
##ensis
462
Ejemplo
físicos
proseguir
bomba
##HO
conexos
prud
paz
259
barco
dibujo
##003
1257
Conclusión
divulgación
3000
##jet
objec
obtiene
haz
empr
##íficos
preparadas
exigirá
seleccionar
##ométrica
Solicitud
Pi
hoc
ves
ότι
##ód
##Gastos
preval
##visiones
señalado
finalizar
ok
##tle
##BC
##erba
cong
fabricado
terminación
metálico
LMR
CERTIFIC
Ko
##ester
anony
mag
##ocos
observador
##III
radi
##abilización
explica
microbi
síntesis
HG
ka
##vena
produk
recuperar
prorrogarse
óptica
cercior
Rem
##ny
##reland
existi
consenso
305
218
empleos
9300
intér
411
Civil
típ
##gli
inor
seres
##tinas
CONTROL
visita
0404
deudas
doméstico
multilateral
BANCHE
catástrofes
bater
declarada
complementos
fronterizos
ciudades
mecánicos
trámites
291
Subs
ulterior
ponderado
Libre
perturbación
veinte
folle
##σεων
Conting
subcom
entrado
Eurojust
excesiva
##oneidad
HOMOLOG
Fru
SUP
búsqueda
##IAL
362
vivas
recopilación
mosto
llenado
incertidumbre
OBSERV
till
##°00
enga
inex
##till
primeras
identificados
Atlántico
impurezas
anonyme
inorgán
##ñamo
detención
##eng
##ísticos
mantendrán
concierne
sinergias
Num
##ação
evaluarse
perjudicial
XIII
##lés
##τε
##eren
inher
258
##ielo
muestran
indiquen
precep
insertará
ae
##ïõ
##ini
2208
182
Anim
324
reciban
between
ejerza
afron
sencil
##czy
##TS
corrupción
##ECCIÓN
lesiones
requieran
##cindi
Ensayo
##fur
##tex
##019
Resumen
fallo
Origen
biod
##fosf
##OX
236
272
facilitado
vendedor
desarrollados
Inspec
##áchese
##ογ
##ecerá
calibración
despiece
tomen
observado
destaca
abanderamiento
Te
bes
fall
retiradas
rendimientos
Liber
precipit
PROGRAM
atender
##ctu
registran
azul
señalados
potencialmente
arranque
##zona
Marca
audiencia
##versidad
##lands
introducidas
simplificado
Volksbank
##centa
prom
##unca
##pard
Univers
vertic
##esorería
auténtico
Contribución
Hor
visto
solidaridad
213
442
ordenación
deseen
cuantitativo
vivienda
MIEMB
Etiquetado
ced
gal
out
##xico
##αλ
##ÁS
##dig
##minas
DER
comunidades
operan
especifique
261
autorizarán
exacta
cerrados
##σι
##ρω
prestador
proceden
382
333
Precio
Instrumento
mensual
conllev
##GEN
##ters
##ige
soportes
##ESOS
cerdo
338
accesibles
compromete
incompatible
susceptibles
SERVICI
estan
consor
secos
alimento
visibilidad
justificantes
separada
idoneidad
mecánica
italiana
##YDRO
dat
daño
##jeron
1291
informó
1785
progresiva
vas
éter
##ded
##ρθ
##lamino
Reun
configur
transformador
##oph
pagadas
lograrse
enviado
páginas
vuelta
POLÍ
Office
read
aptitud
acus
postal
finalización
9500
Sapard
cuestionarios
602
##íô
desa
##clor
sala
cooperó
INGR
ferroviaria
autónomo
Veterin
Argelia
##yer
dispar
Marítim
asignada
justificados
transmitirán
comprometen
migra
Té
##úe
##clas
suprimirán
trozos
Elabor
HOMOLOGACIÓN
Ul
activamente
345
contribuyen
sulfúrico
##tam
##osph
200000
debidos
Señ
menciona
publicadas
539
inglés
alternativos
renunci
mixta
##iy
Contin
interrump
##ings
290
##IFICACIÓN
legalidad
cilind
ingeniería
##ÑA
deten
##etz
cerám
cáñamo
##zi
##umas
316
247
##ERACIÓN
aviones
repercu
alegaciones
Empleo
paquete
amianto
ríg
424
encargará
reglamentario
Materias
##yrne
ratio
##aux
##yle
auf
219
##ERCI
373
tendría
mundi
subsid
Manual
volunt
subartículo
τα
##hl
cuero
##ENE
data
frases
Medida
AGR
redactado
relieve
administrador
9º
és
conducir
formuladas
SUB
Ireland
##IUM
263
contenedor
designará
Presupuestaria
SP
Ste
m3
##icacion
procedu
DETER
faen
328
433
celebrada
dejado
actualizar
Procedimientos
Bruxelles
Les
ordenadores
correspondencias
ESTADOS
transnacional
CCI
intr
pais
recibidos
justificado
incineración
fibra
malta
exacciones
impulsar
##ods
propos
##ordnung
tratarse
someterán
vecinos
Neder
imper
asistir
##etín
empresarios
##ograf
destinen
fluctu
NOx
anticipado
##onomía
Ja
Nº
Tit
lana
283
represente
Asistencia
conservará
respeten
rotación
imponible
##ίας
has
ri
##med
##stom
acético
considerables
234
requeridos
restrukturyz
på
##vera
##igue
controladas
313
001
Relaciones
CONTEN
implement
innovadoras
queso
fosfato
árboles
Byrne
ps
##tag
salari
##azol
propulsión
abus
etano
Asunto
##ibraltar
perturbaciones
terrestres
calentamiento
RA
ritmo
##ecan
disuas
legalmente
sigan
difundi
irregularidad
FSE
MERC
##tant
##uetes
2201
transportadas
352
transparentes
tecnológicas
αριθ
##estim
previos
##iosa
##ICACIONES
Financiero
disolventes
Sim
río
compresión
ganancias
Debido
510
OIE
lógico
constitucionales
generar
indele
Mag
oxi
secretaría
ppm
acreedores
Melilla
Ren
εκ
anul
complej
asegurará
##ftware
restringir
municipios
επ
##ow
##ses
postales
##cela
idénticas
supeditada
Ceuta
Vien
##enten
informativo
reflexión
primaria
275
sonido
##ércol
emplearse
somete
pasaje
ST
tos
##gue
ancla
variar
deriva
libremente
auxiliar
emprender
distorsiones
exhaustiva
audiovisual
refugiados
inadecu
NING
##ll
##zadas
##vet
respira
298
perjuicios
permitirán
aceitunas
llama
logro
mantienen
comprometido
plataforma
DETERMIN
DIN
nel
queden
comprobará
excederá
##TUD
democrá
Educación
440
901
##pón
expec
madre
ponderación
Laborator
Bon
petrol
proxim
iniciado
elaboradas
afil
externas
reconstituidos
brucelosis
Kong
bival
##uci
reemp
##tac
##urantes
casillas
Prueba
tuber
marítimos
Conforme
INGRESOS
192
##ENCI
dieci
insolv
271
##hidra
biodiversidad
NUE
Utilización
mach
nunca
set
seda
medido
1408
Development
Tabl
##au
##BR
##iprop
##grama
corrosi
México
DRAM
xx
2500
IDT
Asamblea
Nomenclatura
Vid
stra
tin
##ille
iss
introducirse
glucosa
lateral
Barc
bij
fues
##tativas
caída
255
transportados
##aza
##iew
antigua
Estatutos
almacenados
tomates
departamento
desinfección
Jean
Táchese
rehabil
económicamente
Carne
excluido
silv
edición
bolsa
retribuciones
Toma
ros
temp
##landés
laborables
herramienta
expansión
Nord
ilu
pec
##10000
##íces
##ład
##ret
firme
##quilibr
actualizado
estratégica
respaldo
acelerar
EQU
díg
##sp
restante
##lutin
fueran
expedidas
requerir
impresos
Guinea
inmobili
Constitución
manipul
pisci
BAS
##TADOS
##ijn
epizo
Especie
corresponderá
Eti
lados
##ευ
vertidos
351
##ους
estimular
Mediterráneo
inflamación
asimil
pormenor
Gibraltar
Vigilancia
finanzas
cartas
##udget
occidental
transferir
ecológico
IFM
autenticidad
NINGUNA
420
SIN
##σμ
##als
retorno
eslo
disolución
sera
##ecil
289
EET
Frances
transcurr
disminuir
Silva
litigios
GN
L40
Landes
##itus
##ileno
invoc
279
notificadas
ajustará
guía
##loruro
Modificada
compensatorios
Competencia
neerlandesa
subcotización
590
superen
ajustado
negativas
##valor
rigen
##εται
Bretaña
hipo
##tás
##όμ
REINO
pelo
italiano
introduzcan
bandas
Tecnología
##ION
##ρά
319
tensoactivo
costeras
equipamiento
accesible
aceptada
incorporar
explicativa
hábit
secundaria
enunciados
hectárea
IE
cig
wa
##gio
853
##TEAR
rubric
pienso
palabra
bacalao
A6
Gra
MHz
ecos
ign
##nie
##iten
mercancias
2092
241
288
##ógica
posea
Destin
añadiendo
881
corrector
negociar
destilada
PRESUPUESTAR
Barcel
tún
##ceno
2106
comercializarse
separadas
##eronáu
Presidenta
Aceite
##ως
##orient
carbonos
reducidos
carreteras
bulto
corregir
catalizador
memoria
subyacentes
bivalvos
Fero
##άν
##ick
##olos
converti
balanza
botellas
ultraperiféricas
NIC
##kez
##tivación
fijas
their
##enditure
puerta
coherentes
ciclos
sólida
depositario
incomple
radiactivos
711
sesiones
commun
suero
mencionan
tria
325
originales
facilidad
cinc
Valores
##ILIDAD
Situación
pene
##æn
desmon
##rana
DOP
##ificado
services
suelen
oleaginos
bacteri
##τροπ
Crédi
##20000
##SM
##rod
tramos
recogido
signos
facilitarse
licu
Fundamentales
amenazas
hectol
desnatur
Algunas
On
sw
##ríg
##tum
##formación
##tiner
303
##104
353
experto
ACUER
preguntas
descanso
Hong
Kypr
ocur
adoptan
cho
quedado
habitualmente
izquier
Hz
##SOS
##rosión
1001
PARTES
Markos
##faces
encom
causados
proporcionalmente
finalizado
níquel
POS
wer
##tár
##gement
unitario
188
##ENTA
facilitados
##CLAR
Επιτροπ
480
JAI
απο
##veg
##etano
fundición
comunicarse
comparabilidad
##ianou
pulver
atmósfera
Barcelona
Kyprianou
##sz
##orz
delante
contribuyan
derivan
ESPA
onda
concepción
provincia
biodegr
Feroe
##ob
##ότη
##oder
##uesos
saldos
269
abono
pertenezcan
Forma
negociables
Relación
VAL
uvas
##uje
##gulo
##ηκ
##ηση
Protocolos
246
desarrollado
especializadas
332
llevó
semestre
bolsas
bloqueo
invalidez
Bur
FL
##BE
Análisis
reflejan
Suplemento
Die
hel
##ijo
##iques
##inares
aparte
supera
insumos
363
341
llegó
revisiones
extremos
argumentos
perfiles
reaseguros
RU
gene
conciliación
##gráfica
rojo
implicadas
biológica
Materiales
indebidamente
Str
hijos
##tativo
software
244
##iese
##prise
comprenderá
veterinarias
ont
##χει
delic
esloven
cat
273
##ANO
comprobó
transfronterizo
visibles
justifica
refrigerados
tramitación
Igu
XIV
État
1102
1107
utilidad
negro
justifiquen
Rodríg
Rodríguez
##entor
##quím
##ibo
508
##ORME
ropa
reactivos
Carbón
sé
##ron
##han
##DC
##ress
ofrezcan
compruebe
αυτ
##bos
vigencia
abog
integradas
infección
gaseosos
MÉTODO
excelencia
580
Adop
ste
att
combinados
IFB
minoristas
Trabajos
portátiles
Lon
amo
miel
parale
##talato
elecciones
enviarán
avanzada
acreditación
60601
despropor
530
Mär
Sex
hici
oro
##df
##blio
pese
237
registrarse
onder
contingentario
impulso
För
##utados
##ñones
reti
DECLAR
##ifen
##EDAD
comprender
circunstancia
7208
601
manuales
support
Principios
enunciadas
Gin
##ération
realizó
Respon
cuaderno
justificadas
Service
##TERIOR
diluido
Ahora
salmón
complejidad
extr
sober
generador
instancias
conocidos
mallas
##earch
consolidadas
supervivencia
OPS
brom
##ας
development
##isse
Seych
285
autorizó
encuad
ofrezca
demuestren
explícitamente
Amb
financiado
597
peticiones
60730
rech
238
264
INC
##fluor
subcontratación
crediti
Seychelles
500000
NORM
tesorería
was
##fos
##kar
##izadores
consagr
sobr
##ocarb
constituya
añadirse
completado
crudo
voluntario
##CRIP
Únicamente
Francesa
Tem
War
vý
##lín
##ring
##OCI
reiter
287
asignaciones
firmante
068
Canarias
Luxembourg
MOD
Phare
aceleración
incompatibles
aiuto
gasolina
filtros
hubieren
incendio
terrestre
subterráneas
jug
ko
calibre
267
Destino
461
Ass
tiempos
reventa
isla
convertirse
desventa
preliminares
KG
rus
##102
##ped
pref
Copen
hilos
desarrolladas
impugn
BG
Masa
##eguridad
nego
forra
sucesivas
ilum
sensible
fianza
itiner
interrupción
saneamiento
##uni
##tering
preju
interfaz
Porcenta
certifica
responde
375
##here
fracciones
candidato
przed
atrás
##uto
##kom
author
COMÚN
##ALIA
profun
Saldo
gravámenes
juego
ran
##zö
##adería
prensa
recordar
ejecutiva
##1100
trabajan
convier
##TRUC
Company
mobiliario
GO
Delegación
##ietileno
sho
salas
##TRE
guiones
facultadas
Sloven
ase
pidió
##ali
austr
convencional
incorporados
confirmó
##USIONES
plataformas
recaudación
hubiese
MIEMBROS
1A
B1
C6
##etin
##lament
representen
fabricadas
##cefal
argumento
antiguos
implique
##péen
612
Har
Pen
pico
vom
Compon
serían
evolu
garantizado
##apit
noventa
óxidos
SNC
ÁMB
οι
##tti
##foro
##VOS
parcela
##urity
Bruto
influir
Años
##laza
##ancos
embar
Capital
encontrarse
alcanzarse
dinámica
820
SAL
##oli
##ueso
Char
comunicados
invertir
proporcione
##TAB
##teca
satisfactorio
thro
State
Trad
minuto
entero
laterales
Ban
aide
pant
##IES
##MO
semi
257
##gena
322
representar
pertenecen
llamada
PEG
HYDRO
Stra
##zą
##JOS
positivas
##TITU
elevación
abonará
actualizada
##UTS
Costa
actúe
brevedad
Más
litu
##éê
garantizarse
engorde
escolar
adeud
Cr
δεν
##ègl
descripciones
moto
##ches
derecha
asignadas
prohibida
viable
##UPL
##pendic
PERS
GenmbH
3A
RT
tiras
##ecas
##teor
mantenido
##ímero
válidas
devuel
A4
fre
trit
remit
cuenca
perpendic
Proteg
2771
321
limitadas
calcularán
revisada
barras
insuficientes
ocupa
Ara
Cápsula
prestadores
Estabilización
##ficidad
314
estatutos
indicios
complementariedad
vender
cuantific
aprueban
LUX
avería
tas
##õë
##miss
abo
consultado
conservas
calculados
correctores
déci
nutri
reproduci
Yugoslavia
insolvencia
negocio
DUPL
Stre
rés
##edera
Estad
rectan
market
306
276
tome
divisiones
competitivo
ligeras
caprinos
retribución
ejerzan
hectáreas
giro
deja
consistirá
Corr
EXCEP
transfronterizas
precedentes
WestLB
Mues
ciento
##GE
parecen
##olamento
reflec
propuls
344
cha
gravamen
##domés
reclamación
Policía
periodicidad
gem
##δι
##eco
##tries
##uss
privati
##ισμ
Cues
M1
Tej
bici
##amb
transport
370
Medic
Peso
intercambiar
Reci
fér
pays
##ubo
meteor
adquisiciones
ventilación
C1
Met
aeronáu
##hy
##400
porta
##yectos
electrodomés
Nederland
Gab
NN
PF
Sra
gli
##ndad
##jadores
##GAL
##aceae
dispens
294
331
periódico
analíticos
caprino
portuaria
Explo
mundiales
501
Hy
##ulation
anulación
cord
##ENTACIÓN
266
396
##ORD
hombre
SIGU
radioeléctr
στην
radiaciones
plurianuales
interconexión
hosp
Hels
muebles
##ZA
##uego
##oman
parabr
inició
conservados
NOTA
elegidos
posee
Azerba
parabrisas
TI
##dy
##ties
commit
mediterrán
exigirán
##9099
##TRAS
alegaron
congeladas
introducidos
Apoyo
penetr
S1
##uda
##mé
##TOR
prestarse
resuel
imprev
constituidas
obligar
##castle
clasificado
señaladas
autonomía
acuse
contaminados
colectivo
RESUL
pregunta
DEFINICIONES
Pacífico
##èglement
electrodomésticos
θα
##TAN
equina
observando
velocidades
abonados
rueda
##zeich
cuantitativa
Pueden
RELATIVAS
management
XS
aviso
darán
zur
##αγ
such
resources
##ocho
controlados
semej
##ικές
subvencionable
expone
##xxxx
##vernment
Longitud
##menta
##hmen
##cisión
alimenticias
rechazar
abiertas
Hex
##SS
encefal
##aldad
desen
decis
transportar
contrad
Pueblo
reclamaciones
##700
Considera
365
Manten
sucursales
ozono
duro
óv
##etten
sinies
subsigui
hoy
ejerce
Tensoactivo
Modelo
Mejora
Mit
Tél
##esen
determinen
adopta
0201
abonado
dilig
distribuidores
##NDICE
Técn
613
Han
LÍ
bid
obligada
tric
fabricar
forraj
conveniencia
574
aforado
desempeñan
nombrado
Newcastle
ayud
309
##deras
806
transmisibles
anticuer
Órgano
dru
##ùóç
##lice
##dehí
diam
generados
##ności
sitúa
CONTR
381
768
aislados
millions
siderúrgicos
AY
Loc
cuel
##ágenes
deduc
##imon
##ritos
finalice
##aminas
0202
piro
químicamente
monetarias
MIXTO
Departamento
Ginebra
Ni
##UDA
als
##ductores
426
estratégicas
INFORME
mineral
urgente
660
Junta
##pres
elusión
662
że
##met
##YC
acop
interino
café
controladores
395
777
Natural
##rillos
prospec
##ucle
##ilato
##iona
presupuestos
tóxico
Chemical
ciencia
corpor
##íns
1000000
355
##mediterráneo
FINALES
abarcar
adversos
SÍ
SCR
##bach
Comb
secado
##visores
frança
desequilibr
##enzen
indirectos
isoprop
lingüística
ÁMBITO
Sep
inoxid
reaparición
suscrito
304
análogas
Spółdzielnia
Cla
##onía
desigu
342
limitados
facturas
signo
recubr
oportuna
##sko
abonar
perfeccionar
interacción
840
FORM
conferencia
tall
aprobarse
almacenes
enviados
acumuladores
Participación
##opa
concentrados
soluble
measures
alf
Compar
aparece
360
##QUIS
fórmulas
piedra
Gol
standar
##dados
##apor
##íe
promedio
Interior
solicitados
cooperativas
Interven
542
asignará
diversificación
incorporadas
Perman
colocar
extranjera
innovadores
híbridos
controversia
comenzar
Kaz
Serán
invitación
tarjetas
##ATOR
garantizando
requerirá
transmitido
cometidos
mensuales
##ihil
ilícito
distinguir
extinción
TABLE
Fal
Trig
pac
##ago
##emia
##iger
##lazar
decision
equipaje
Santa
barreras
##icon
ancho
especificidad
##ONIA
administrative
comprenden
Lucha
prioritarias
##iformes
inserta
violación
condens
mampar
1a
701
##gentes
##aderas
provid
suger
##lifer
imponen
Azores
vagón
farmacéuticos
Contingentes
aro
##ρατ
exento
##trina
1902
predom
374
##MPL
CRED
aiuti
piscifac
through
Mill
ak
dato
##zon
Anual
puente
##orato
transformadas
multa
multas
aumentando
XXIV
Madeira
Mejorar
Fra
Leche
dinam
##iada
##urt
##ères
1035
arr
Infra
atún
recomendada
enarbolen
countries
CONTENIDO
Bra
Mientras
##átr
##line
incon
parada
329
COMUNITAR
exclusivo
emisores
cuarta
rentables
desarrollando
tablas
relevantes
española
δι
##tv
##ερι
prolifer
cuidado
002
especímenes
agric
SIG
contribuido
armonizados
pagador
fresco
##sterdam
transeuropeas
MP
T5
ist
rama
##heid
inflación
chinas
SE03
##IPO
Resultado
lingüísticas
aparecen
##énica
tenían
celulosa
invertido
favorablemente
nutr
dominante
inoxidable
SM
Um
crom
hilo
##ns
susci
normalizado
##aty
identif
filamentos
##07000
cadenas
fiscalidad
tóxicas
pantalla
dioxinas
Apro
Mantequilla
ine
polietileno
biblio
admitidas
limpiador
HD
PS
oC
##IONAL
##ää
##osten
into
inhib
##remol
medicina
declarante
##ORTE
##ógrafo
##ULF
##9070
##999
sostenibles
circuns
bancarios
supervisor
armador
##bernam
ampliarse
Superfici
inmigrantes
SEGUR
##arre
##icar
##blación
277
Facil
urbano
Kenn
testigo
precauciones
Tejidos
óvulos
bank
alle
1154
##ocol
312
capas
facilita
FILM
fruto
juegos
presidido
Spółdzielczy
ACUERDO
710
NM
unitarios
relig
maxim
15000
dihidro
quie
##ικό
alimentarias
biom
seleccionadas
hogar
Blanco
Luc
Commit
presiones
##gubernam
##ARIO
274
sont
##0000000
0102
Instancia
Defensor
clarific
cánones
CERTIFICADO
rehabilitación
EP
gros
viene
##YO
##tienen
##uma
##tice
249
##LACIÓN
467
regulada
0401
dok
irrad
vinculantes
zoo
bombas
COOPERA
Cat
omiti
##íes
segmento
sistemáticamente
Revisión
pasos
estudiará
642
##ated
preservar
##USTRIA
Bál
##hin
##ining
##terr
##oll
##oltura
products
##tics
CONTE
regula
deriven
combinaciones
##toxi
##CIONAL
##ñéá
Garantizar
Gi
Mecan
deton
##unes
accionamiento
Está
entregar
reunirá
##1900
tubería
tuberías
efectúan
enviarse
Administra
Costes
OTROS
nú
υπ
##hip
##201
##ρή
##θε
##urso
##uesas
autorice
346
publicó
evaluado
675
coloración
##ards
ORGAN
GA
##cab
##ÉS
##alis
##uebas
##ilater
primario
seguirse
molec
orgánico
##iness
pronunciará
iluminación
680
Ira
##LAS
##wal
##arización
Produ
##ógicas
acepte
imágenes
herm
fortalecimiento
patógenos
Pero
jab
économ
óõ
##ot
##gado
##ματ
##φορ
entor
inap
supuestos
##toriamente
##ions
carcin
invier
captur
##álibo
monitor
SIGUIENTE
Vin
Wien
jorn
être
μετ
##BO
##isuus
coti
manio
obliga
385
ligeros
policial
fuese
A3
C3
agen
etilo
##uen
##ìç
##enia
enm
actions
prem
##anciales
plantilla
379
comprim
0503
550
legislativos
rodil
produjo
expirará
remitirán
adelan
##sociation
Pel
prestado
##lantes
cooperation
neglig
reacciones
notificante
nega
Corpor
amorti
##vegabilidad
eco
gel
despli
ocurr
vertido
analog
consignarse
##financiación
terroristas
emprendidas
delantero
Merk
inclinación
AE
Bio
RCE
Tanto
ida
##né
pred
obtenga
permitiría
0203
##éíü
Memor
OIC
sumas
impida
##tile
##mith
356
330
comprueba
expedirse
convencionales
suspens
##óxidos
acabados
filtrado
hallen
inhalación
Medicamentos
Adi
FS
RTE
Tes
Ze
##día
##θηκ
##ńst
eslora
presunción
##eneración
aceptables
Martin
proporcionado
faro
Konz
pomocy
emit
one
##bel
definirse
##1080
compartida
Obtención
européen
reduce
extraordinarias
rib
##sulf
##MEN
##rek
also
DOC
confieren
Prima
Casilla
mecánicas
arbitraje
idiomas
etanodi
CT
PET
droga
pier
##SH
##VM
ex29
dispuestos
aspir
254
429
amplitud
deseo
halle
estratégicos
armadores
Actualmente
London
IC
##PD
##FE
debil
asisti
##ieno
beneficien
moder
Pakistán
ampliamente
LUXEMB
##ηγ
##anal
Estabilidad
desle
##oresc
##020000
378
limitará
Pruebas
aeronavegabilidad
analítica
habituales
respaldar
quesos
Mercado
Centre
subcomité
300000
BL
We
fum
nada
##binas
##ose
projec
dial
recibier
consultarse
figurará
implicados
facultades
Industrial
##TURA
Mesa
uit
##FA
##JA
##entado
condu
disuel
##éndices
Protec
286
elaborarán
854
centrarse
Agricul
descom
Especific
enzimas
acuosa
verticales
760
delito
##cultural
ang
controlado
2131
252
tercio
responda
elaborarse
consecutivos
aproximado
transmita
volumétrico
SCH
Ven
εξ
##omb
porte
exijan
antec
##tenas
##change
explos
2847
sustituirse
##IIF
##ITOR
señalarse
receptores
IGP
silvicultura
húm
##ões
alam
##olia
##ication
##dificación
concurr
##ésti
poll
transportistas
benefician
empleadas
consolidado
suponen
congelación
sospecha
##werte
diplomas
Pleno
configuración
##eni
carril
377
496
claras
080520
anuncios
eff
cuáles
##irtschaft
mús
##enio
logo
segmentos
mani
1774
creada
but
humanitaria
Export
aporta
corregida
empez
mamíferos
κατά
impliquen
forrajes
Tipos
##ły
##icales
##igan
establish
pato
realizaron
##2050
revisará
completará
transitoria
concentration
concentrazione
otorgar
encendedores
##DIUM
##tuvieron
cra
##uw
inulina
Regla
Consumo
##minister
CONDI
##ANTE
ampliado
ANIM
MODE
ETCS
Preparaciones
##bióticos
cepas
COOPERACIÓN
Health
zoosanitarias
Destinat
Pito
hubo
##pin
##hydro
##ðéó
forme
##taron
REQUIS
7219
Informes
##ÍSTICAS
CREDITO
NUTS
sen
##BOR
##tebr
anf
combinadas
compensaciones
suponga
AND
Porcentaje
MAC
##ło
##Þì
##lag
##ificaciones
operation
agre
Fabricacion
cualificados
busc
mataderos
Tabla
Báltico
despliegue
REQUISITOS
IB
Puestos
naran
Ôá
##LES
##jero
##PON
##ímp
consistir
1806
transporten
valorem
##antemente
pagadores
oriental
##ικών
llamadas
higién
level
Indicaciones
IA
lt
##arlo
enti
provisión
prés
primarias
international
##ANTES
etílico
##cribir
dificultad
alcanzados
neumático
impact
Respons
Aére
Terc
mel
##VIS
Inc
##timidad
##capaci
limits
##ellschaft
remitir
patentes
navegables
Trigo
Net
##ust
##KA
degli
##icados
##dadores
generadores
propano
potable
médica
ENERG
##pria
mejorando
identificado
mezclar
##ague
conducto
danesa
precisas
PRODUCTO
##ordening
##wią
audiovisuales
proximidad
Kazaj
Lic
bit
##πτ
cumplirán
sangu
343
9400
crítica
Verordnung
Colum
laminados
Επιτροπή
Cám
Techn
dB
híg
##Ýíô
inyec
asi
565
##ióp
asociado
bancaria
secundarios
duplicado
afrontar
VER
##rogan
estir
debati
mercantil
883
fallos
blanqueado
idénticos
módulos
vulnerables
##tichetta
ecosistemas
Línea
NT
##tien
confin
point
326
##ECA
desempeño
metabol
fósforo
OBSERVACIONES
BN
Labell
##nen
##ãê
##ipinas
Provin
certificada
procesamiento
fiel
##ischen
ultramar
dedicadas
relevant
ramas
consolidada
privilegios
quiebra
Labelling
C13
SL
TÉ
ai
án
##ésel
##bla
oru
##ocas
certif
409
Transportes
detectado
Color
experimental
Legis
Concentration
Etiket
##zeichnung
ALEM
dass
endo
##teles
estación
##adagas
ancha
interfaces
Lago
ori
directores
##chaf
ACTIV
##grafías
gestor
Infraestruc
Kennzeichnung
Konzentra
2B
Lam
##éra
reven
informados
funcionales
verted
Coord
sept
##tiquetage
respeta
atribución
halla
tolerancias
Berlín
lineal
SOLICI
adhes
movilización
signatarios
hormig
cuello
GT
Ru
jefe
minas
##4000
deter
eller
rectán
evapor
programmes
242
basó
368
visit
estime
desee
conexas
Dispositivo
DERECH
biodegrada
geneal
CONDICIONES
DV
Einst
Otro
Pra
Zonas
##iantes
##loma
##rther
##lamente
##usieron
372
explotar
globalmente
decre
##hidrato
rechazo
entregado
coincide
descentralizada
epizooti
Mos
sto
##ÉD
##ello
CONVEN
aceptados
proporcionan
acompañar
Financial
propondrá
potenciar
recipro
##itis
prorrogado
Classificazione
ingrediente
climáticas
##merken
##egrenzen
inmunidades
##áíóç
explosión
Bes
pena
##icción
series
##misiones
examinados
##ulagem
aquella
deseable
##ufung
renovable
entregados
Classificação
pedido
modifique
Einstufung
lás
Åðéó
##nem
detr
enla
##dies
##endieron
grande
concentração
##enzwerte
Rusa
Artikel
rapidez
##innät
Instalaciones
desafíos
##ænser
##ùóçò
##ìçóç
##Ýíôñ
##tichettatura
Etichettatura
Fuer
¼ñéá
Étiquetage
##jería
##îéíü
##tiegrenzen
enorm
##ely
1108
##ARES
Luok
Indeling
##änser
##tionsgrenzwerte
Kenmerken
##rajat
Limiti
Concentratiegrenzen
Koncentrationsgrænser
Koncentrationsgränser
sesenta
##LANDIA
Rotulagem
Environment
FAO
##kezet
Märkning
proliferación
óõãê
##isuusrajat
Merkinnät
Pitoisuusrajat
##Þìáíóç
Ôáîéíü
Etikettering
Konzentrationsgrenzwerte
ÅðéóÞìáíóç
##Ýíôñùóçò
Luokitus
óõãêÝíôñùóçò
Ôáîéíüìçóç
EMP
engan
resistentes
expide
pura
agit
confiere
347
850
##benzo
poseer
Publicación
policiales
##οιν
applied
Emb
Mul
##ÓM
anorm
miles
figurarán
energías
sueldo
APLICA
veinti
dependerá
numer
netas
REUE
##ONA
emplear
revestimientos
mostró
abandono
##ESTIÓN
SERVICIOS
ALEMANIA
sul
##ozca
##hire
##uegos
inoc
##reich
creados
proporcionados
raíces
franceses
aromas
Bis
Gem
Kir
πα
##entena
##edentes
excluyen
abonadas
construidos
Film
Filipinas
emprésti
##dehído
Lin
##lla
##320
##ån
det
parciales
diarios
##ómeros
plazas
activación
elaborada
dependencia
referidos
semir
vaca
suprimido
aconse
transmitida
1043
cuantitativas
preventivas
sufragar
fenómeno
acuerdan
COOPERATIVO
940
Ced
Fe
Ti
##Nota
##GACIÓN
cubra
especializada
institutos
justificativos
permitirse
liberará
cruda
conoce
ilegales
Agentes
PCB
cromatografía
desapar
EXCEPTO
Tre
hemb
ust
disolver
informática
expenditure
prioritario
causada
Sanidad
intracomunitario
experimentales
Resultados
sirve
válvula
Bran
S2
bog
pista
##let
##ær
enrol
##dir
##patr
25000
##TID
278
cree
conceden
Europ
Trade
This
administradores
idéntico
símbolos
facultativo
Seguimiento
Marítima
502
rean
reconversión
preparada
reservado
##ACTER
ITALIA
suministrados
στο
renuncia
##arillado
application
adultos
perpendicular
etanodiilo
AA
Cari
Cum
long
##hme
##gru
pacientes
aceptarse
##ATA
Debería
Pour
equilibrada
poseen
Agency
azucarera
Diplom
amarillo
talleres
SEGURIDAD
Du
##ílicos
acad
##poner
mencionar
registra
394
tratadas
##órico
ilimit
ECON
equilibrado
ανα
entrañ
Consultivo
recorrido
Sirene
Iniciativa
inherentes
DECLARACIÓN
reciprocidad
Rue
TO
mom
tinta
##áb
##50000
##kr
##PO
##esk
junta
volá
correrán
339
882
pesquerías
mecánico
recopil
##adagascar
Dada
DATOS
Wa
##GET
##ícu
ess
estacionamiento
activities
octa
##ionale
##ology
cabezas
Formato
Basil
aprovechamiento
estipulado
recíproca
acústica
Estudios
CONFORM
pase
##ction
##úan
##idin
##inki
primarios
sustanciales
##atorios
608
door
##beta
pagarse
60947
APARTADO
difundir
BI
Madagascar
aga
guer
##yment
remisión
##dias
télex
Republ
comercializar
ponen
montados
evaluation
autónoma
##cismo
dulce
folleto
POLÍTICA
detrimento
Spe
bra
##feno
##didas
##bina
##οπο
subasta
ENSA
prácticos
851
Existen
vacíos
transferidos
primavera
Occidentales
hacienda
swap
Street
640
##lä
recambio
coco
Cuar
cooperarán
Interc
Pharma
cepa
subdivisiones
terapéu
Deutsch
##mante
##enie
aplicándose
esforz
dirigido
voluntaria
Molda
concebidos
ubicación
Pales
ion
##weg
##VI
##astas
##cionadas
##ites
carroc
Uno
insign
valorar
mejorado
distrito
profesiones
been
automati
than
nombrados
##ούν
osci
worden
alfa
creará
envió
sanción
371
especificará
REGIÓN
reciben
cuadrado
ferment
subvencionadas
destilado
manifiesta
percibidos
Financiación
reexportación
cuidadosamente
430
Bi
Dim
MAL
ΕΚ
##bación
##GL
1882
juntas
##103
millón
asegurarán
firmados
dirigidos
térmica
PREPAR
restablecer
nafta
preceptos
indeleble
Helsinki
PD
puro
##stáceos
015
492
revisarse
molde
intensificar
pedidos
perjudicar
##centración
izquierda
juguetes
tun
presten
impide
2371
##culosis
espacial
SISTE
desfavorecidas
Esa
oídas
autorités
Ang
originaria
facilitando
admitir
racionalización
microorganismo
esquema
Superficie
##mpara
acet
##lac
##fina
PRUE
##verso
antis
hornos
cuartos
acondicionado
policy
televis
noruega
infecciosa
reutilización
anticuerpos
SC
gl
ovo
plantación
superficiales
##gráficos
canje
completarse
Amsterdam
sueldos
minorías
aquéllos
sirvan
concertadas
Consulta
ESPAÑA
list
vent
##xo
##RET
##une
1905
1251
##énico
650
correctoras
génér
concertación
sucursal
polímero
satisfagan
##iyán
Viena
Azerbaiyán
Aumento
##ST
##itz
##ocido
And
Maíz
almacenar
justifican
preferentemente
actúen
espuma
513
Brig
hydro
nicht
##fun
##θεί
##dimiento
##ird
##peti
##gras
##iben
regres
##gués
##11000
Armon
bloques
descubr
gestores
cinturones
SUPER
encomend
Federa
Other
ave
##áci
##ρε
##íen
##ωση
##ema
##eds
##eval
684
juven
ulteriores
EDF
6A
Mi
##USIÓN
preste
compos
##ett
Integr
especialistas
añadidos
cintas
significado
aplicacion
ejercerá
intervenir
revestidos
Bay
perteneciente
Semillas
comerciantes
rectangular
semirremol
40000
Agre
GESTIÓN
př
##inaciones
orí
##éndo
##profes
favoreci
ACC
##quense
economic
desean
incrementado
ofrecidos
minimis
fertilizantes
sémol
zg
περι
συμ
##ICIÓN
##HA
##bac
##ÍN
##loor
gasóleo
incur
colza
##dere
llega
explicación
fitosanitarias
Posteriormente
clínica
shall
cír
litigio
honorarios
Humanos
recibieron
2015
aval
389
950
##pram
ejercido
elevadas
colocará
estiércol
accesorias
otorgadas
Beihil
vecindad
trazabilidad
CONFORMIDAD
DS
été
extiende
cuentan
cosech
responden
pertinencia
excluirse
alteraciones
bancarias
halogen
Azúcar
silvestre
suele
protection
engaños
Kio
##comun
##zanas
##ír
##icular
modificarán
Andor
siglas
internacionalmente
débil
implicación
Indemn
derogación
ofreci
rell
##zövet
Caribe
Ampl
##LOR
##bis
##imb
nation
##chos
dies
plumas
aglomer
clasificar
##ske
protegido
jurisdiccionales
PLN
##λλην
facultativa
polímeros
aromáticos
Hom
Séptimo
ado
wo
contrapar
demo
amplía
##tizaciones
rotura
diseñadas
imprescindi
rebasamiento
apruebe
paquetes
encuadern
Especificaciones
orígenes
Dom
T00
ost
we
##mel
##éci
unilater
report
tern
464
769
contrarias
ofrecido
##ework
PORTU
reúnen
portuarias
règlement
##pla
##οδ
##γρα
##ules
alícu
##dure
465
REGIONES
437
flores
Modificaciones
extranjeras
commer
relevante
incentivo
EJEC
trimestrales
negativamente
Moldavia
CF
Ros
Som
Sam
SLB
##PT
##anie
1500
diarias
##plosi
INCL
críticas
terminado
Public
absoluto
revocación
odon
środ
##λα
##íquense
##err
Commiss
Construcción
preferencia
408
excedente
productoras
terminal
##LANDA
participe
ocasionados
##ισχ
health
aguda
fluctuaciones
Kioto
1H
##ics
astill
##dicas
caras
residente
comunicó
##años
##tadióp
SE06
temporada
retirarse
dirigirse
consisten
VEH
PN
PNB
hep
##ford
##orda
prescripción
legible
##ONAS
obtengan
consultará
líquidas
solicitaron
##070005
2a
Adap
Sor
né
##tios
##dió
##rav
designa
##pers
##gramas
costas
claros
extraer
cuarentena
cualificado
humo
pronunciado
enunciado
Efectos
Fiscal
constructor
entablar
tritur
Cuestion
RESULTADOS
zootécn
über
##tain
autorità
aber
323
compradores
griega
Andorra
SR
fel
##ader
##iteit
##ilado
dicloro
##lete
referido
curs
carbonato
##yente
##jen
##kir
eximir
determinaciones
subst
Alpes
instrucción
1965
escuelas
ASTM
matriculados
síntom
acoplamiento
hormigón
Cital
System
fid
urea
μg
##tors
##cleo
main
asociada
Institute
rumiantes
agotado
##ografía
##zövetkezet
Dif
dod
if
##IENTOS
##orks
pares
alquit
conditions
Ann
abertura
Refor
361
348
líquida
detalladamente
impedirá
convocatorias
rúbricas
radiactivas
absoluta
discriminatoria
CLASES
Biel
##uidad
##ρχ
expida
##ejar
notificó
observó
cri
proporcionarán
chino
##ουργ
retirado
Medios
reactivo
acordados
investigar
portuguesa
ingreso
cónyuge
machos
##opat
TÉCN
##ισχύ
TER
ze
én
##ções
conm
##ADER
##control
decim
únicos
aumenta
9700
within
##way
boletín
prescritas
cumulation
cerciorarse
rubricado
Gan
dnia
gráfic
gálibo
aptos
##igr
##ioso
2571
exceptu
##ALL
##111
Interpre
ambicios
tubér
biocarb
alemanes
sexual
espong
Permanente
Aguas
JUR
##ult
##ollos
preparativos
##uelle
##55010
cadre
transmitirse
foco
instauración
07099070
bicicletas
2A
GE
Tin
ral
tio
zijn
##nych
##hor
##ιστ
##cico
contes
medidos
clima
constantes
852
##9900
radar
07020000
Ministère
intermediario
Peric
muertos
Regulamento
przez
aromatizantes
Tampoco
specific
negligencia
maniquí
EK
etox
kHz
secuencia
##ję
##ρί
##ρεί
##sten
Ing
certificar
##genicidad
concedan
personalidad
471
07070005
Generalidades
garantizan
avanzar
indirectas
enfoques
llamado
brin
sueca
assist
destacar
cultivadas
arquitectura
any
Acceso
tercios
desarrolla
realizando
##1090
limitan
aceptó
comparti
Precios
##eftalato
60061
Supervisión
idea
FRANCIA
dígitos
CG
##beck
actores
perder
contador
1210
subastas
autorizan
beneficiarias
horarios
franca
##then
intermedias
pane
comienza
7209
##dorf
pronunciarse
Crecimiento
Incluye
INVESTI
exploración
irrevers
intérpre
restrukturyzacji
dieciocho
académ
SCE
##zin
##presión
anex
adquier
##treo
marina
##materi
ajustarán
cinemato
##cidencia
justo
alternativo
monetario
Economía
Cultura
cigar
AYUDA
Ty
οπο
##czn
##zj
inal
##ule
potás
##LAM
montaña
publicados
conocido
estipula
INTERES
apreciación
dinámico
TV
għ
ventan
##cel
##ÍD
desech
##abes
marinas
constará
representaban
convenientemente
proponga
transmitidos
limpiar
acredite
NUEVOS
SCRL
against
VEHÍC
techo
##hi
##úmina
##andas
##tore
necess
continental
##105
beneficiado
364
##9090
depre
obligatoriamente
respetarse
continuará
aportado
eflu
biomasa
CV
supr
##tet
##licación
Alcoh
limite
Margen
proporcionen
incorporen
##anka
##efes
##fobia
##idense
fortalecer
desembols
Puer
ved
paragra
150000
tens
environment
reconstrucción
permanecido
vacuna
##AMAR
08055010
ORIG
reaseguro
expectativas
050302
hígado
EO
##een
Composición
aco
financia
estables
DEB
contratistas
declaró
tomada
##thio
conduce
escen
##étrica
clínico
##orrus
archivos
enarbolan
carrocería
890
CPA
QU
zinc
Ára
##stán
##ils
actuando
##ologías
335
implicaciones
cautivas
indemne
Mecanismo
molecular
premez
MS
yo
##hand
##ków
##úbrica
##cienda
anillos
##uero
medirá
Notificación
tron
pasando
ESPEC
conductos
suministrado
disminuyeron
Industries
tarifa
tuviera
reproductores
Food
estadounidense
Tubos
logotipo
Mir
Spa
vitro
varía
##zioni
##čen
##ani
##feras
aren
arqueo
corrosión
nominales
index
iniciará
##ROM
Association
indicativos
oportunos
##ksen
ligera
colocarse
respald
Redes
soportar
bromuro
NI
Ur
aeros
##vel
##ÍF
##rastr
Unter
##ARIA
notificarse
octad
accesibilidad
3600
ejercida
permanentemente
incorpora
##UMEN
rentable
preocupaciones
ενισχύ
lactantes
recubiertos
##λέ
end
community
discapaci
partido
org
orienta
mediación
##1200
cabotaje
pagará
Verordening
Autorización
ejercen
acordadas
στις
secundario
depositado
epidemiológica
werden
encefalopat
1°
C2
My
insec
##yana
##ifug
Information
Subvención
Sociedad
Enmiendas
RECON
excepcionalmente
cristales
caballos
esteril
08081080
##ENCIAS
Componentes
encuadernación
hem
ona
##AF
##8000
##ÉN
##irti
intercultural
##iosas
infantil
comparar
##posa
Maquinaria
1962
peligrosa
##benz
suministrada
omnes
Berlin
NUM
TE
##ciado
exti
##ándum
##ijke
plantones
millas
basti
exigirse
globalización
centra
vacaciones
congelada
percibir
italiane
carrera
C5
Sulf
##aro
reim
##urón
Elementos
solid
estableciendo
inscripciones
##azón
390
dividen
horno
referidas
libro
conservarse
cuarenta
prescritos
Aceites
transnacionales
injustific
Naturaleza
Corporation
OICVM
ribere
Gla
Jul
Mor
war
##yli
##uation
##Cl
##vier
intergubernam
##etar
lubric
##prises
representado
##proyecto
466
erga
sentencias
adjuntará
disparidades
SOLICITUD
Afr
Ecu
avis
cerv
##didos
##90000
##vn
derogan
##ense
##ont
proven
contadores
005
##enofobia
designarán
calculó
genética
Manufac
DESCRIP
muerto
sobrepasen
urbanas
extremadamente
hábitats
MPUE
Im
River
decide
Cuenca
334
complejos
reparaciones
SECRET
marcados
patente
Dublín
oleaginosas
BV
Dar
work
##hod
suba
apéndices
##tena
establecieron
sonda
participará
556
ratific
Italiana
espaciales
CONSUL
ERM
Cel
Ese
GHz
ML
geno
##tia
##taza
##trar
##titudes
Comunicaciones
##ESA
operen
fauna
380
manteniendo
contag
suprimirse
Calidad
restringido
gratuita
Aviación
cenizas
motoci
##imbab
IM
T2
##ym
##οσ
develop
##oración
##anio
##ulado
parén
##itera
##ecuencias
sistemático
2710
Presentación
tampón
tapa
Observación
restringida
CARACTER
agroambi
soberanía
Pericles
B2
DAB
Sw
fos
##uter
##onil
##porta
Direcciones
copo
UNA
3824
##ajas
griego
conservadas
Services
regionale
sensiblemente
admitirá
Saint
largos
lámpara
buscar
pescadores
transcurridos
MODELO
ECONÓM
Velo
##áé
##öl
##τή
##ίες
##urces
##acas
aparente
regolamento
habido
##106
observados
autres
dependiendo
readmisión
disuasorias
DETERMINACIÓN
paréntesis
Zimbab
nul
εγ
##stvo
cui
acr
evite
##udí
South
respete
respetado
reduciendo
desempeña
reconocen
manufactur
Maurit
herbáceos
Agreement
JURÍD
FON
Sig
##vej
##μβ
##ρου
##omal
##008
catadióp
##dez
1159
foro
celebrarán
orientadas
exactamente
admitirán
PRODUCCIÓN
suced
Commissie
Recu
aterr
##rían
##ms
##301
quem
##olis
2933
celebrará
aprecia
Sello
Fib
##hus
##hing
##viendo
##FI
##isk
algo
prestan
##eleración
carbox
formados
1520
manos
referirá
conservarán
automáticos
frasco
bancario
Grupos
próximas
plástica
mujer
follow
Susp
insignific
Bor
Dato
Tetra
ojos
enum
ex6
1005
operar
##genas
publici
mayús
3846
vinilo
adjuntos
radiofr
EUPOL
constatado
alcohólicas
Aduanero
BAJOS
salariales
tuberculosis
forrajeras
Kazajstán
NIIF
##fre
##ógenos
##tral
utilizó
some
minist
##bility
fluv
aumentará
botella
Obligaciones
sugiere
BOV
Pin
##asen
##teurs
add
Indi
consideraron
superáv
transportarse
##ISA
May
Frank
Monte
denunciante
appropria
Komisja
Helénica
comenzará
ber
huesos
tien
##gü
##ambl
Comm
Conjunto
##etanol
Inf
constituirán
387
demostrarse
transferido
analítico
coordinada
Cabo
crediticia
NORMAS
PAS
Us
bios
zw
##opram
##istan
##ucción
Extra
##ITE
vacas
emitidas
more
##etileno
secundarias
informatizado
anfitr
Interpretación
Dero
budget
##yp
##gadas
fijen
indíquese
indispensables
Importaciones
##undaciones
should
Corrección
superávit
dieron
hulla
oto
##ort
##isj
##amas
reagr
##cotones
##alizaciones
##trasse
recibirán
evaluarán
reunidos
firmada
provistas
##trans
secretario
escritas
entrenamiento
cítricos
inacep
ACTIVIDADES
Sierra
##ui
##vidad
lagun
##ónicos
descas
hidrol
difieren
##tánea
##oxetin
salvaguardar
EFSA
invitó
Deutschland
Bri
Ries
ke
##gi
##ñón
estím
arco
condicional
repos
354
preciosos
519
570
anteproyecto
probar
crustáceos
Personas
coordinador
##hídrido
obstaculizar
bordes
Tempera
Cad
VA
dign
##cie
inundaciones
impera
interprofes
Enferm
Comunitario
cargos
calcin
propuso
identificadas
firmó
incorporada
##AMB
pudieron
spra
number
##CIONALES
fallecimiento
Crédit
piscifactoría
4000
Peter
πρ
##óc
##ROP
deje
##eric
##cionarios
anón
Regist
1200
##rasar
invitar
COMERCI
##iesen
verano
funcione
observarse
metanol
acompaña
dévelop
factoría
Controles
τους
disciplin
procurará
precipitado
Citalopram
Apr
HR
RS
RF
gente
luego
##inter
paragraf
sono
cumpliendo
estructur
suplentes
Catal
aquéllas
mostrado
piedras
Iraq
Reforzar
descasc
Ceb
Van
gol
exim
##roso
convers
viables
##telares
dejará
ganaderos
escase
contemplan
lucro
σχ
##dina
contado
##cloro
##portu
##venue
##ificados
1422
pesado
Esp
Descon
centeno
revocar
##critos
seleccionado
imputación
explosivas
RECUR
levant
denunciantes
Sparkasse
mediterráneos
effet
5°
cro
oder
vial
incapacidad
##CIO
##ologie
Papel
689
cubrirá
ALIM
errón
Sanciones
municipales
equitativa
justifique
teórica
Arabia
guerra
BAR
Camp
vib
vital
##hts
##idenses
##ibia
Prohib
société
complejo
785
Impuesto
compensadores
plantean
dejarse
cautelares
metálicas
fotografía
filtración
##ίναι
Promover
estadounidenses
Postbus
tubérculos
Velocidad
Ciudad
gráfico
pies
pdf
##Com
##kk
ende
##set
##erche
##etales
durch
##eau
##119
elaboraciones
tendentes
examinarán
señaló
acordó
gestionados
Ningún
Government
LEG
atractivo
##stoms
Kre
ecu
είναι
Compuestos
##pea
1050
dictadas
pesaje
403
consumos
llevada
completas
ordenamiento
alimenticio
plásticos
SODIUM
Certific
##ordenadas
Campo
provincias
dispers
dispersión
homogénea
frigoríficos
##yun
##jado
##RY
dispuesta
mandos
regulen
Main
##gráfico
##urgia
reúna
potasa
retrovisores
##ain
aporte
constitutivos
886
648
##acho
##TOC
##AMBI
emitió
OMS
Portuguesa
cerrar
fotografías
House
PRESUPUESTO
equitativo
cancel
Coordinación
Mauritania
##mä
##stell
repuesto
estu
alej
consciente
##liche
##abez
Comunic
##azioni
equipajes
depuración
7212
##etería
consistentes
despachado
minorista
africana
plasma
arquitec
inorgánicos
consorcio
Web
rup
##éï
##BB
parámetro
Commun
ornam
##idazol
siguió
mantuvo
secas
objetiva
pesada
fram
empleadores
situarse
##heries
Mounta
entenderse
##gesellschaft
sintéticos
Marie
##treng
Siria
period
recolección
núcleo
Bad
Gaza
cod
##llas
##ÚCAR
aline
##ecución
primor
propici
407
Research
sellos
##LEO
##ally
##ligt
AZÚCAR
Ale
ecop
pilar
##mod
##μέν
##VO
reto
##peles
prestando
##etario
Eng
regirá
się
##ERS
peinar
oneros
##ικού
##fort
desmotar
enlaces
Ajust
C01
Glob
Iso
##ucidad
##DD
coin
existían
Chr
caracterización
semicon
##ITER
tela
pasaportes
defectu
actúan
Moldo
minimizar
##BIER
##clohex
indemnes
compartimento
690
Lond
Mas
Util
fur
meg
##φα
##erización
condon
##ison
esfera
organis
superan
destinan
359
proporciones
##ucado
centrará
excluida
Transmisión
idón
##stalt
vaso
penetración
Aérea
bituminos
rectángulo
escasez
WE
ÍNDICE
##nik
##lia
##utas
##rij
normalizados
Proceso
fijó
##ensores
declare
pasas
equivale
subsistemas
mandatos
colocado
Potencia
tribut
CRÉD
LTD
otoño
Kal
Lund
benz
bonos
nec
##oz
##TECCIÓN
##MIL
##VE
##ollas
##egen
##icida
disco
cardar
menoscab
miljo
##herencia
ciudadano
admisibilidad
entregará
refrigeradas
porcentual
OTRAS
fruc
enju
##identes
informada
subzona
despegue
profundi
622
ISPA
acreedor
Farmac
privatización
##omanías
Nit
υπο
##rados
##gy
##ZO
##202
##kov
##ės
##osis
emplo
salir
salmon
participado
éster
instalarse
elector
referida
registrarán
rights
otorgado
municipio
discriminatorio
lettera
desecados
LIF
N1
Ya
detrás
conduci
##006
##teil
##tróp
Proyectos
respectivo
comparativa
alcanza
registrará
faros
RESUMEN
Recomendaciones
térmicamente
comprometidos
periodos
AUTORIZ
FUNCION
Frutas
Mantenimiento
síntomas
descascarillado
Bene
Sernam
Win
kap
zumo
##tanto
##hague
##302
##kes
ases
1258
aumentos
transformado
hort
emul
excedan
sucesivos
aseguramiento
fluoresc
danés
adjudicadores
marginales
Territor
extenderá
Copenhague
jornada
Arancel
Mana
Tol
Xn
best
exenta
##umbres
ceras
calderas
desarrollen
funcionan
aprobarán
367
celular
fabricarse
opina
contribuya
islandesa
flora
planteamientos
discrep
recabar
Cedex
Moldova
490
Nam
δια
##ved
entera
Contexto
consular
##lichen
dispensa
Entidad
adyac
informa
polvos
subca
Reducción
dou
ESTADO
Preparar
DESTIN
experimentos
estuviera
inscritos
Agriculture
INVESTIGACIÓN
potásico
920
Ein
dro
pist
prodo
recorr
coop
directriz
precisos
máx
##INACIÓN
7216
Autón
628
822
##sions
voz
goz
0809
crucial
incidentes
atrav
grabación
telefonía
##upefa
biocarburantes
Londres
DIV
TIPO
cian
vcprd
καν
##hab
##vol
##iac
addi
superado
Tratamiento
Esas
facilidades
constata
##239
automo
Textile
reembolsos
otorga
##guardi
diputados
enteros
ópticos
coordinado
ensambl
titulada
baterías
pollitos
intérpretes
Bom
Bus
DL
IET
date
##sica
##2010
diésel
Esc
All
trig
recién
##uvre
FEI
clínicas
recíproco
reduzca
TRANSP
imparcial
amortigu
láser
empréstitos
DN
##enn
ex3
Const
##uevo
448
críticos
##TACIONES
vendidas
mezclado
Budap
reúne
distorsión
testigos
jarabes
urgentes
Lanka
Sri
fech
jest
##irs
##tures
##ducto
1958
##iał
soja
finalmente
##ENDO
##satz
Esco
##ANN
726
##andante
estimada
##ATEG
rige
óptima
COMPET
sirven
simultánea
reanud
Bielorrus
TEM
lign
##OH
##omen
antin
paga
admit
tratan
modificó
##ift
niet
antibióticos
##tanol
##ámica
##993
examinarse
cubrirse
produits
Correspon
ligados
apoyará
decreto
rodadura
marché
Radio
Basilea
##AMARCA
RECURSOS
##upefacientes
Bielorrusia
interrup
fino
##pectos
##ENS
diana
ADN
##monio
facti
SEA
implicar
imponerse
dirigir
diferenciación
cumplimentado
Ensayos
country
Completar
DINAMARCA
Gemein
AUSTRIA
azo
bez
άρθ
##XY
estér
##dus
resca
##oce
Action
##culares
##úblicas
604
439
7210
517
falsific
respetu
pasajero
llamados
desembarc
redujo
Mountain
OIT
##hu
##ked
initi
##eding
##deña
positivamente
investigador
aglutin
489
contribuyendo
aides
fomentando
XVI
pecuni
APLICABLES
CARACTERÍSTICAS
OD
eficientes
##ls
##atre
##base
##GICA
##ÉL
##adien
##idional
apres
##olép
presa
##lab
financ
comuniquen
creó
costos
##luor
##112
comprenda
trasero
compartir
melo
conserva
##skie
Modo
prohibiciones
portugués
transeuropea
bonificación
rango
Cambio
Sco
avena
pól
##of
##tä
##tee
##ex080
incurr
organizados
Poly
Arb
these
alteración
Autoridades
Facul
pertenece
cerradas
ocupación
Cerdeña
telecomunicación
strateg
hembras
PORTUGAL
antinie
MIN
##resas
##terol
##izarán
record
regime
cortes
legge
actuará
caracteriza
adoptaron
##izacion
escalon
emitida
sensor
edificio
desglosadas
impactador
##furt
afirmativo
##γραφ
1B
Cisj
EPA
HUM
Hilados
vor
##7000
deshidra
discos
producciones
##abezas
medirse
arro
COS
Vistas
Examen
titanio
transeuropeo
anclajes
detergentes
imprescindible
Budapest
Cisjordania
But
EY
##ecos
##inen
Comis
##licér
Indica
Inversión
organolép
duradera
##ECT
##iftig
temáticos
permanezcan
Exposición
comprobarse
##evit
respetan
justificarse
explicaciones
amonia
sueco
devengados
ideas
ITA
aur
tap
##ólica
allo
inters
procederán
jurídicamente
##tish
incidente
experimentación
empezar
participation
legítimo
GLYC
##ORTACIÓN
analogía
alquitrán
antiniebla
810
C12
Vir
bod
dando
##UF
##eri
anejos
coû
colores
##apolis
traspas
fermentación
consignarán
Gua
entregadas
Documentos
prescrita
adversas
Galil
Cláus
Stock
Brigada
Lundbeck
rea
Reglas
condicionales
genera
Alcan
temática
376
adaptados
semilla
carburo
##phosph
##logías
##íclicos
Primer
macroeconómicas
Hidro
licuados
0000
400000
Caja
##orf
##deno
##ogue
sustituidos
recicla
7228
Minne
selectiva
preferente
intracomunitarias
INTERNA
Qué
##σχυ
ilustra
would
paneurope
suprimen
nulidad
Posi
amp
cette
nad
##för
##phe
##pement
##αθ
##GOS
contras
redi
##ming
interferencia
21A
procedido
Aspectos
homologados
Programme
##skab
ínteg
Saudí
sufrir
##tabletten
hallan
óptico
redactará
brotes
misura
húngaro
BGB
Gabón
830
Was
Wil
ocul
##linas
##úen
inevit
##ciona
exon
##ilares
desgas
concurso
Inves
cierres
acuático
ligero
bajas
emergentes
FEADER
suspenderá
accionista
kilómetros
prudente
Glaxo
Minneapolis
WA
##kl
##άλ
##ande
##tori
impago
orto
marro
solicitará
003
obligadas
obtendrá
camino
mantenidos
dominio
formulada
ópticas
humos
deshuesada
advertencia
IRLANDA
Animales
mayúsculas
##trengthen
##sza
contex
##unde
##izante
##lage
inmediatos
brutos
Correo
frecuentemente
colore
previsibles
Nacionalidad
explícita
##ETHYL
fraudul
holding
promuev
consagrado
Palestina
TEX
##reos
noción
##áneos
recapit
trayecto
formaciones
dietas
004
based
camiones
398
divisa
ordenante
require
##εια
Energy
metálica
harinas
ensure
estuvieran
experimentado
Distrib
Cumbre
Galileo
##stos
ach
dispuestas
EURAT
exporta
butil
##verg
cooperado
process
452
notablemente
alimentario
dinitro
dedicado
Reserva
ESPECÍF
EURATOM
C4
Cloruro
Pis
TC
Vil
##osp
cumar
prefinanciación
##tinos
quiere
beneficiarán
UNIDO
Intereses
integra
evitarse
ordinario
zosta
ελλην
##HOL
##gal
##ül
##ránulos
polim
REAC
010
##ALI
tomas
##116
supongan
accidental
diploma
habrían
prolon
Mercanc
legítimos
CLASE
Explotaciones
foc
kö
well
χορ
##uri
peróxido
##quies
sobres
006
##itología
nombra
residan
383
##ROL
REGIONAL
chapas
derogarse
mezclados
desarrollarse
decom
acumulado
ocupan
implíci
transversales
επιχει
##anzania
Reconoci
ocurre
Aco
RM
dadas
eine
##pus
impidan
##cess
entrarán
abejas
729
comparativos
hidró
Armen
674
canon
pertenezca
Trich
japon
cambiado
vapores
cargado
Agenda
08082050
Reunión
cilindro
standards
cotidi
Filmtabletten
NB
OA
TP
yute
##ences
##ulantes
Regione
##rando
2799
infring
reguladores
##ósitos
separar
contaminante
trop
impactos
Trabajadores
possibil
fraudes
gallinas
escaso
aeronáutica
estímulo
##licéridos
ITER
Sz
Tanzania
##tw
##hes
##MER
##ert
descrip
obtienen
Encar
##nahme
cola
ejecutará
humanas
Arch
reservada
asegure
satisfactorios
Stato
quinquies
Indicación
dalla
Micro
antígenos
sanguín
MW
κρατ
##utado
##6000
##orl
Europeos
modalidad
pastos
3719
monóxido
revisados
##ικής
##598
##hou
3002
diseñarse
numeración
estrictos
Industry
kilogramo
Cantidades
híbrido
dependientes
notifiquen
Toxic
choque
commercial
paragrafo
Dejar
lla
étn
##hio
##ώς
aplazamiento
marin
participarán
práctico
identificables
617
vinculación
frecuentes
radiocomun
acordar
congelado
prosper
fichas
##ópodos
Selección
Electr
inaplicación
orujo
SUPERIOR
Temperatura
UTIL
impuesta
##ustice
##éné
Decision
250000
##ancen
comprar
SIL
482
ACE
criados
##reau
expirado
##ANCIAS
distorsion
Creación
notifique
MODIF
meteorológicas
Suspensión
6403
A11
Bd
Hand
TIR
##cino
delfines
##terdam
##olas
cocina
expidan
calidades
##ximetil
##TICO
Alc
399
constantemente
0210
exigibles
divul
Motores
rota
cubren
abonarse
alega
introdujo
archivo
rechazó
##ometría
certifique
decimales
miljoen
αρχ
##fü
##DP
remo
parques
generalizadas
692
orientada
##25000
geográficos
subvencionabilidad
salvaguardias
Excepciones
Factor
issues
hicieron
##patriación
Gras
cromo
##ák
##άδ
ex39
cueros
##else
##ganeso
destine
##endios
##ifos
empleador
prepararse
recibirá
pira
satisface
semanal
cm3
incoación
MATERIAS
ADMINISTRATIVOS
restauración
780
Bancos
NOR
##vio
##kan
##ße
deporte
##ament
1947
sindic
publica
empleada
contribuirán
##ITES
checa
SEPD
tanques
depositar
delanteras
##henyl
##itrilo
verdadero
Affa
IPCA
Dublin
desigualdad
predomin
maniobra
BNFL
Var
##μα
##sed
prescrib
##ONIUM
##TRAL
cinta
##nosti
reviste
asegurado
caducidad
implicará
acordada
alumnos
##75000
migrantes
diluir
Introducir
##holm
rebaños
Mezcla
Zimbabue
bioseguridad
FICH
IGU
lodos
τον
##fety
##istencias
1150
Existe
conocida
guías
decidirán
##ικά
alcoholes
cerrada
panel
logros
subray
asimilados
##όμεν
##fluorocarb
tensio
hortícolas
060
cápsula
iones
##ène
apdo
exacto
##izando
anomal
##énicos
vea
aborda
confusión
representados
##italia
usar
balances
##nix
Ferro
##fosfato
intríns
desventajas
Spain
CFL
Sac
bario
##ftal
##cji
##nidad
##gonal
##ótica
##512
estupefacientes
DEP
persigue
termo
Cuenta
ADR
458
emulsificante
asignarán
Franja
Finalmente
carbon
llegue
##91000
##ονται
inflamable
Plazo
esquemas
Alimentación
CONCLUSIÓN
migratorios
halogenados
alícuota
LIFE
Juegos
Much
gránulos
ki
vier
εφ
##ób
##έρ
##ÁC
##entados
sedi
alp
related
superará
cumplim
distintivo
peletería
vii
0204
recurriendo
alquileres
impositivo
cinturón
PRESUPUESTARIAS
Sexta
ánimo
3°
Für
tim
tolu
##nus
##vidas
##ύν
##adec
maj
##att
pobres
PRIM
Prestaciones
monopol
Coe
char
examinadas
fruta
ilumin
##telería
##OMA
##forc
reduzcan
OBJETO
fenómenos
tocante
inexac
incompleta
ACID
FER
STAR
gov
Ácidos
##hte
##30000
##μφ
anhídrido
##ross
##etal
##jez
##ificada
polaco
generaciones
habiéndose
collec
disponerse
369
936
celebrarse
pagada
ECHO
biotecn
aeroportu
voluntarios
bols
##SIONES
Rotterdam
cancelación
abandonar
hectolitro
##õëï
740
EW
Stad
Uso
heter
##ελ
coordenadas
##URAS
estatu
##ensible
instalar
excedentes
##CEAE
reglamentaria
analizador
MOA
idéntica
rebaño
Titular
##ifenil
Recipi
Republic
engañosa
Manufacturas
Desconocido
marroquí
Mercancías
επιχειρή
Cin
##sal
deze
##icus
##amino
##uera
efectuó
605
805
energy
fábricas
donante
##tell
XXV
##viaciones
Institut
inserción
##hren
Operación
6204
agregados
vesicular
steun
##tebrados
nationale
redistr
Armenia
090
SUE
##led
##kre
##breg
##ibera
transb
reco
cortas
solicitarse
##índr
duradero
off
habiendo
importarse
labores
neerlandés
ubic
Excepto
recolec
lanzamiento
antígeno
faenar
Federativa
Arbeit
It
area
##ié
##cados
retar
remite
Comoras
prevean
contratados
representada
centralizada
titulación
##edoras
##16C
derogadas
##fenol
dedicados
abarcará
frigorífico
impregnados
ignición
prejuz
grosor
omitirse
790
Cod
Mid
Ot
Star
TEN
nach
##ασ
##esas
##iguen
Prop
##ARD
Ante
comercializadas
celebra
tratarán
foros
INM
Exención
444
##ológicamente
EXIST
Investi
perfectamente
atenerse
refinanci
Disolver
conectado
##incendios
epígrafes
cilíndr
limpios
cuadrada
##ότητα
antecedentes
2H
Barb
censo
##tadoras
##OUR
inund
##imi
entrev
##aliza
2342
##ANG
duplicación
implican
reforzada
ecológicas
admitido
Normalización
distribuidor
picada
vuelco
gradu
solucionar
jueces
manifestado
brote
concebido
DEFINICIÓN
desembarques
abogados
vibraciones
Management
60000
Standar
cz
##MOS
##Kline
##entará
ines
##ilding
diet
constituyentes
2220
##mplimiento
faenen
Alitalia
##érm
antigü
##ebru
ESTAB
GRAN
##utz
retirados
##METH
demostró
supondrá
interpretarse
restruc
Pesar
descuentos
múltiple
authorities
siniestros
##mithKline
EJECUCIÓN
2°
Feder
Hal
Rin
##zina
deformación
##culación
Propi
##entrional
funcionen
dependa
tratará
prohibidas
flet
Permiso
genéticos
ECU
Superior
históricos
OBJETIVOS
Voor
Alimentos
renunciar
BLK
Provincia
subapar
χρ
##far
##BAS
##ency
##rel
alm
##lazado
casco
refundi
legibles
##ensas
421
tendrían
581
GRE
describir
atribuido
PESCA
Quím
testimonio
incumben
CONCLUSIONES
Hacia
##yk
##xido
##MIENTO
proto
##forma
formales
contraincendios
expira
Sea
vean
costs
ENTRE
32004
Eurocontrol
##agli
VIH
##IMEN
precurs
remitido
absorber
ETH
fichero
prolongación
laminado
bonificaciones
deliberaciones
concesion
BdB
880
A5
Ober
SES
pocos
tir
##juntos
##DT
##dieron
##izará
acorde
CEPE
##usa
COL
evis
LAUR
Author
##121
exclusivos
Final
impongan
Hacienda
ingesta
alcancen
acondicionados
correlación
cuerpos
histor
Compens
reforzando
subyacente
dulces
IGUAL
vina
##cencia
##det
##eh
##Aid
##onias
##anil
polaca
capilares
forordning
dotado
integrarse
melaza
chlor
maltes
analizarse
biocidas
ocasionar
batería
##οποι
CAN
Non
SW
##uatro
##rent
##onales
enca
2000000
percepti
desviaciones
resistente
debiendo
##ticuatro
##ierras
##ivin
trayec
determinante
##xima
##hein
trabajen
lleguen
Salom
biológico
demuestran
##ονομ
habilitación
cualitativa
OIEA
Hynix
agenda
BLK0
Rio
##tarias
##undo
alear
perf
order
cortadas
##108
equipar
construcciones
especificarán
further
complementar
satisfacen
automáticas
excesivamente
Indep
consejos
Protegidas
patogenicidad
essere
ENSAYO
Ep
Over
SER
ain
federal
##EE
##idel
proyección
ex0
consid
basarán
aumente
observadas
usarse
vinificación
telem
estipuladas
subdivisión
enzim
years
cilindros
recherche
DERECHOS
FUNCIONAMIENTO
BEL
MG
béné
któ
litor
pep
##600
##isi
common
##itm
actas
acarre
##acabezas
EuropeAid
core
##íneas
definirá
fron
camp
toman
427
metox
radion
Maldi
indirecto
Emplazamiento
preventiva
delegado
##landesas
vídeo
perforación
Fraude
herméticamente
dialogue
##ímpicos
enganche
SLBTR
radiofrecuencia
Nada
##NU
##íaco
procé
invest
##ADOR
##ucture
807
552
suplente
patrones
poseedor
Country
comience
alcanzó
##ojan
meramente
sobrec
jabal
aguardi
dol
##yon
##isting
intimidad
##itamente
##blos
desmante
aritm
instalada
permitió
conocidas
##izaje
tamiz
Caisse
North
decidirse
Sociales
delanteros
urbana
vitícola
OPERA
incorrecta
Veterinary
LUXEMBUR
aerosoles
Salomón
SULF
eman
ga
##CT
##ΝΑ
##entamente
##ueces
remedi
Estras
sous
destinar
milil
##gung
iniciarse
##aph
consultados
Coherencia
almacenarse
incorporan
prosegu
##είο
MARCO
dimethyl
mobiliarios
Intercambio
Estrasburgo
Bang
EB
Fórm
MY
Sci
kan
sabor
vic
##pm
##äh
##τος
alza
1051
incluía
value
##109
ejecutadas
##INT
415
adaptadas
##upación
centrifug
chap
municiones
liquid
reforzado
##3100
##REG
ofrecida
infectados
##sterreich
veinticuatro
anotaciones
OSCE
confección
edulcorantes
Pros
##iadas
##bs
##éré
##éano
##óto
##úb
comitología
antim
imput
nacidos
##ADORES
tenencia
Republik
##303
rayos
almacenado
##ike
PROTECCIÓN
brutas
adquiridas
Subdi
completada
introducirá
asumirá
##hrung
##discip
indefin
supeditado
##ólares
INSTR
Cuestiones
paragraphe
STE
Tres
sam
Éste
##kal
inca
##untas
cuas
peras
desaparición
partiendo
##veno
##chado
tensiones
funciona
amplias
contrar
convertir
education
##ométrico
##straat
cualitativos
fusion
GUINE
intervienen
lucra
eslov
eslovena
Traducción
RECONOCI
Saj
Varios
due
tac
##mus
##ίσχυ
##êt
1244
catar
coex
carbo
superficial
precise
##ief
expresar
homologaciones
Productores
biológicas
numéricos
0206
##toxinas
GB01
aquélla
actúa
sumerg
ενίσχυ
bromo
##ápsulas
limpia
Consejos
acidez
británica
amount
escenario
développement
framework
980
Fl
H5
oraz
20001
expuesta
##quer
##chi
service
pescar
decidan
##ARE
indicó
tereftalato
maternidad
cama
397
diferencial
granja
Euromediterráneo
derivarse
falsa
convertido
Casos
remitirse
ficheros
rebasar
Liberia
radioeléctrico
bidones
inocuidad
##FICI
##idora
parlament
peróxidos
consisti
comunique
mediados
##icotróp
##ieur
##204
existía
##ubbl
convendría
478
producirá
##ABA
CRITER
CND
mixtas
inmunidad
susceptible
controversias
deportivos
GOBIER
kos
nano
water
##arga
##rosos
finanz
##now
contact
detector
##zek
brind
ABX
condena
varían
clarificar
insignificante
GlaxoS
Kr
LIB
P6
Pom
femen
time
##éá
##tats
presum
##teno
cumplirá
Cuota
comercializada
ADU
propiamente
GRUP
revisarán
trade
traduci
canadien
intervention
derogados
orgánicas
metodol
vitaminas
παρα
Corte
Hu
Ox
Ohio
POSI
PLAN
##CAS
alb
matrices
##ecisión
Esos
creadas
disponía
##icher
instituido
metano
complejas
indicativa
1961
ligada
colaborar
Teléfono
imprese
metodologías
reembolsar
##essment
PROGRAMAS
eslovaca
PERSONAL
##ocolate
círculo
dividendos
Cláusula
Lie
Va
inmin
consulares
contados
##abos
generado
Reactivos
indese
distritos
reference
franjas
475
revisadas
##lazamientos
paliar
elegida
nocivo
##ométricos
sinergia
falsear
##sorción
Evolución
momentos
DESCRIPCIÓN
Fibras
Maldivas
Pf
περ
##nej
##ść
custo
pruden
informal
1623
activado
405
permitiendo
asignarse
##iale
rata
cereal
hidrogen
proponen
##IMIENTOS
##ικονομ
Instituciones
láminas
prolongada
FISH
injer
européenne
dólares
gir
##sung
##IALES
##LY
##vy
##alla
subreg
##imos
achic
pueblos
3105
##0200
495
##19000
provista
verificará
Transport
distribuidos
paneles
gela
DESAR
POLY
embarcación
nuestro
fluorados
inercia
deducirse
paralela
aterrizaje
Gh
Gün
VU
cáp
pulg
rá
κοιν
##eu
##zne
##uir
##gada
provo
##itet
prea
##ruk
trif
poniendo
especificarse
opcional
permanencia
subsan
Moham
diseñar
gravemente
ferroviarios
acumulados
respalda
gradualmente
construir
evitando
fraccionamiento
surgir
CONTEXTO
##ństwa
desleales
ornamentales
CRITERIOS
GlaxoSmithKline
cápita
Fase
HS
Tari
##MAR
revalor
##urar
##dac
papeles
Esposa
##versa
efectuaron
Desperdicios
050
notable
aportará
moles
##9100
Tengo
Límite
corregido
απόφα
discapacitados
asesores
AESA
Cables
mide
nór
penas
##dem
##yla
##3ES
##alo
apenas
##izi
##ueros
utilizaciones
pesos
##ination
activités
procederse
confiar
organizado
comprobados
##OLO
ganadería
hiladura
democrática
fomentará
fomentarán
fragmentos
trazador
temprana
mamparos
subapartado
LUXEMBURGO
CX
Ga
Irán
Mov
hielo
##nel
##ardo
COP
manzanas
financiarse
##azilandia
Cha
examine
garantizadas
continuamente
sacos
Medición
atribuciones
porcinos
delimitación
delimitada
contendrán
SUBVEN
Adoptar
austria
contradic
Comparación
juveniles
Autónoma
cumarina
Encarga
DESARROL
FO
Year
omisión
ruso
##HE
##år
##γω
alma
##duras
resina
aparecer
solan
copos
##tase
formalmente
normativo
2408
precisiones
##rafito
998
##mediterrán
representaba
ponentes
##3090
445
##dicatos
prorroga
avanzados
nombrará
Group
enfriar
extenderse
macroeconómico
nítrico
possible
Instalación
παρά
Banque
Golfo
assistance
BP
Bro
llan
µl
##yj
##5ES
##kter
##PING
##encas
##emo
prestarán
1901
1913
obs
##empo
controlarse
comercializado
9910
traseras
515
realista
##eft
Bots
explicar
pudiendo
turístico
##phen
##onosis
conectados
Brassica
incubación
SOLAS
húngara
DUPLIK
FICHA
vinagre
6000
EEC
Lom
Το
##son
##εφ
##elt
obtuvo
admite
autorreg
regirán
carece
empo
##vision
iniciación
##ifique
temáticas
conste
sometan
422
##eness
crédit
Sup
474
516
##ksi
Organismos
suppl
Declaraciones
finalizó
estricto
##laterra
monetarios
intencional
Sudán
gubernamental
CORR
catálogo
Inglaterra
DU
sc
ss
##lus
##πει
##reac
parental
recre
nave
controlador
utilizaron
preparatorias
llevados
figuras
##tadieno
convenga
ferias
recomendar
enteras
imputables
reinstal
RECOM
atraer
gratuitamente
German
caseína
objectives
Derogación
Invest
preaviso
Bajo
Tan
##tula
##Con
##Re
comme
aplicabilidad
1829
exporten
place
##ISIS
comercialicen
453
productora
formulado
cm2
innovaciones
congestión
agroambientales
prosperidad
POSICIÓN
860
MC
nulo
obl
tapón
venden
##ční
##tativa
##uron
partidos
Latina
inventarios
security
Estim
elementales
mesures
##érf
PARTI
consultoría
PRESID
Marfil
individuos
ESLO
638
enviadas
Telecomun
estricta
Dotación
desfavorables
Importes
Aplicar
portuguesas
devolverá
palanca
metabolitos
volátiles
acopl
contrarres
MPa
##dado
##eto
##üs
lamenta
##icarb
##ised
anular
Estará
##acear
Inno
##conio
nuevamente
sancion
llevando
institutions
ventajos
pipe
SE08
6302
legislation
surjan
estrecho
Valby
Funcionamiento
incump
mortem
oleícola
demandante
PROGRAMA
bastidor
Escocia
rescate
maltesa
Kö
Mg
OIL
Tro
mise
sci
##ozcan
##JES
decan
deficiencia
##ampar
Park
##chlor
Port
particularidades
servirá
creen
abuso
Paraguay
##mann
mayoritaria
envoltura
montado
413
checo
prioritaria
competitivos
intermediación
confirme
excesivos
consignará
finalizará
difíciles
ferrocarriles
ángulos
NHI
annual
desmotado
astilleros
efluentes
arenque
##acearum
80000
SPA
fes
##otas
##ké
enco
##ecidos
autores
entreprises
1704
IDA
##ership
##ankki
isómeros
vacunados
##urez
ponderarán
bebida
delegar
envasados
invitará
MATERIAL
modifiquen
subsiguientes
deduce
lubricantes
F5
FF
Stu
Wo
ΕΝΑ
##zu
##utr
##bur
##ambia
##tilia
vejez
estaño
Alg
##IDU
agitar
trabajando
449
mln
Luces
huérf
recuperarse
colocados
escuela
Preparados
EFEC
restringidas
disfrutar
inteligencia
invocada
paralelamente
Venez
PRESIDENTE
ΕΝΑΕ
GAR
Hum
LI
ciencias
vy
vice
##cian
##licol
##quisición
cost
indios
varillas
Polska
Maß
isóto
Prevención
Verificación
plantear
educativo
actualizados
oveja
auténtica
Deleg
Policy
Animal
LEGIS
melocotones
Acoge
Lodos
Neces
Rh
UF
gesti
έν
##με
##robi
reorient
##tele
##ibución
##pones
corred
##cesión
definirán
ELISA
Court
aceptará
dotados
celebró
Seguros
requerimiento
##hagen
dirigirá
##propil
ataques
hidráulica
cerámica
Vidrio
##oriental
profundas
catarral
0A
BT
DIC
Wh
citar
##ued
reorgan
##tología
nodr
desas
##tese
consideraba
referirán
486
minus
537
crim
Salmon
##lomo
suspendida
encontra
προβ
##αρμ
revelar
Milán
netw
ESPECIALES
Entidades
##ÉLGICA
BÉLGICA
Qual
dados
huel
rend
##sun
##cipe
##tività
porción
alarg
##ariado
cuch
##ips
cover
expire
occidentales
instant
elemental
volv
ava
fuertes
Desglos
distancias
almacenada
796
retirará
genético
elegibles
quinquen
Contratos
ofrecidas
Perspec
practicados
special
SHV
enriquecimiento
prospección
condonación
DESARROLLO
Rom
bin
cy
##taminación
##iem
##but
##εκ
##FORM
##ème
##idge
##abora
1011
solar
expulsión
arreglos
sondeo
plantaciones
423
amplios
525
577
pesquería
continuada
Schw
copol
educativos
enviaron
nombramientos
irregulares
##ονισμ
cesion
germin
imperme
sucedáneos
viceversa
AK
Fom
OL
STEAR
Tim
azar
areas
ucran
##tadora
##ië
##800
##initro
inducir
rebase
discu
##defin
##012
crearse
##endimiento
infrastr
preparará
Económicos
##825
barra
TRABA
recomendado
rellenar
Reconstrucción
idioma
divergencias
Tiempo
aberturas
Jos
PV
SB
Wy
Wfa
cef
test
##ugen
##UMENTO
##amato
##dim
existing
acco
Part
formada
##ANC
pasó
##icha
Asignación
aceptarán
sulfon
##tifs
##toxina
provocado
dedicada
encaminada
Kenia
VISTO
desequilibrios
##ibenzo
7A
Dé
DT
HER
Slo
hue
##ije
##fon
##etría
##πε
##ÓD
##ży
escribir
##lava
interferencias
regard
sitios
##ieu
abarque
talla
469
puestas
calculan
orientado
barn
statu
RESPEC
ARTÍCULOS
##TICOS
catalog
retrovisor
preservación
εκατ
respiratoria
TV2
##vergadura
CXL
Cô
Cier
jed
lógica
uv
##ou
##bex
##adi
envergadura
elas
##rob
prestam
##chem
posiblemente
1868
##ocil
2407
salario
virgen
confit
estática
consecutivas
montante
razas
446
publicarse
Suazilandia
aproximada
incrementos
##UMPING
##pedición
diagonal
extendido
paralelas
##hausen
discreción
patógena
Magyar
##ządz
necessary
SEAFO
EXISTENTES
EINE
##pien
##ving
##äs
##DS
##enamiento
elle
##rak
mati
1600
termos
ejecutivas
7211
7225
CUENTA
artigo
reducirán
ANÁL
apoyando
FINLANDIA
minucios
guardia
introduzca
absolutos
manifestaciones
imprenta
desembolsos
Reuniones
inequí
comprimido
Destinatarios
Scot
VÉ
mech
pez
##dra
##Otros
##UTO
##ñá
parque
subida
tomó
##ORA
##INAS
access
##bert
Resistencia
##995
convienen
ACCIÓN
562
satisfactorias
redactada
subdivid
arbitr
Defensa
terneros
anexa
cigarrillos
ventanilla
depreciación
Ottilia
PU
Solo
ll
##ément
##pankki
##vaj
##πα
##βά
estonia
##egas
ex07
##licer
##echt
2100
subgru
hanno
##atios
traseros
ACCES
541
fronterizas
fresas
Denmark
analizado
##olucr
actualizaciones
quinta
proteína
Publicaciones
##ándolo
Añadido
Sustitu
catástrofe
INDUSTR
Committee
SUECIA
Sajonia
Desglose
Ku
pocil
##bras
##łu
##tornos
perdido
recta
salgan
leal
need
##9990
excluyendo
dejen
descend
avanzado
Funcionarios
zoonosis
CCTE
##buses
abarcan
A7
Atenas
Dimen
feno
##mig
##éth
##ąpien
##ULA
##ispa
indu
##ild
2019
involucr
destinará
##ximo
propil
importada
comprobarán
fila
orientar
tradu
alterar
destilados
intervengan
imposibilidad
artificialmente
receptora
carburantes
escog
##φορά
debilidades
SISTEMA
primordial
trayectoria
599
AEA
Dise
Ducado
ETA
JO
Pens
Ésta
##wych
##ησης
##GER
##SC
##MAS
##όσ
##ulaciones
surt
alentar
compac
1290
fung
2202
##ERAS
publique
Ejempl
793
irrit
##ACTO
aporten
ofrecerá
##benceno
clav
introducen
Supervisor
condenas
anotación
deudores
##fluoro
ahorros
socioeconómicos
reutil
carreras
##karé
bogies
CRÉDITOS
Escuela
##fluorocarburos
solanacearum
Cur
MUES
techos
##eign
##GEM
##oss
##ometil
##amio
antena
##bior
training
1509
especif
mantenidas
412
only
separadamente
correctas
competidor
##2100
introducida
imputados
ministerial
SPG
MERCANC
túnel
zgod
lagunas
Namibia
subcategor
##forcement
refinanciación
AECT
East
Emisiones
Ped
Santo
York
mid
##stig
##win
##ør
##θή
##aración
##ompeti
##act
##acer
suscripción
recreo
##ogén
##íncipe
##OPROP
##azina
llevaron
consultor
Cobertura
438
CAB
crítico
encabez
aeród
Stabex
##się
Legge
Centros
fragmentación
desacuerdo
Fisheries
desfavorecidos
##opharm
cerámicos
##chafts
septentrional
adyacentes
MU
Methyl
NU
Sen
VAN
erit
##GI
##orro
inqu
presunta
socor
##ERE
Develop
elaboren
monta
549
semestr
Internacionales
numero
colectivas
atribuirse
distribuir
Estructura
titulado
manipulaciones
weight
semiconductores
achicoria
KE
RDC
ZONAS
##bin
##YA
##stąpien
1698
1839
inscrito
especializado
##203
435
##iang
631
representatividad
satisfactoriamente
##tings
dejan
tang
inmer
suspendido
geométrica
logística
volverá
Milenio
movilizar
effective
Inspección
subsidios
CONTRIB
Columna
ainsi
SEAFOOD
Mus
Sent
Temp
pent
ευ
##ey
##tipos
##trie
Están
resida
resinas
manejo
##ASE
legi
colo
declararse
Pata
725
comparte
expresarse
470
1963
adjudicados
adjudicadoras
auxí
nombrar
XVIII
nuestros
cónyuges
enorme
##plosivos
reinstalación
AI
Cy
LG
MOL
cemento
epo
##erven
cortados
tot
##turation
insiste
1004
Alt
##udir
emol
Arm
Príncipe
SEBC
Magn
##uelles
consolid
extrapol
actualizará
reflejen
Plazos
glucan
Océano
Conservación
lituana
LÍNE
confinamiento
##atregel
EINECS
Ottiliavej
DB
cesiones
lunes
établ
##temb
##fol
inté
aplazar
consigo
##uerdan
asigna
solap
1513
##ény
persistentes
superación
garante
Almac
incandes
ejecutarse
inicie
431
##804
adaptada
inspeccion
884
vaciado
centrado
combinar
##estó
micros
Takaré
elegirá
autop
mostrar
##ηματ
imprim
SOCIAL
implementación
Simpl
genealógico
Ampliación
Domin
divulgar
anomalías
##icotrópicas
0Gastos
Pir
Ton
focos
yeso
κεφ
##ónicas
##entamiento
##ecía
inmateri
examina
##iai
Unidades
406
##plex
416
494
CAM
Segundo
current
acompañan
reactores
bobinas
##ABILIDAD
recauch
##2O5
absorbida
##θηκε
oneroso
XXVIII
##agliari
eslovaco
CIR
Cagliari
Vín
huevo
tru
µm
##nit
##yse
##OC
##LF
##UTOS
##YY
contará
prer
fina
1452
refrac
gaster
transportado
abras
504
despleg
modal
recurra
constancia
Auf
Convenios
asegurados
Security
836
encargar
Impacto
reducidas
exactas
refleje
esperados
Colocar
caute
disminuido
escritos
paralelos
Empresas
FINANCIERA
restablecimiento
verdadera
Electro
evolucion
Protection
llave
Bla
Lan
Pu
Sici
Zea
##zhou
##entí
cubran
cog
##URA
objetivas
##atti
Real
continentales
modulación
trabajadas
7214
variantes
expresiones
##kszövetkezet
molar
laborable
Tak
gotas
MEDA
compensatoria
toxinas
Bureau
ilegalmente
traducciones
letona
Tarjeta
españolas
##σιμ
bacterias
SIGC
invierno
inundación
ESTABLE
600000
Bac
dosi
pén
tu
tes
Áng
œuvre
##gne
##vé
##VAS
elás
complic
1209
1604
1003
##029
afectarán
model
pasará
elabore
INFER
celebradas
##unaut
Interés
Interinstitucional
761
radic
expedidora
ratificado
escalas
##toxicidad
autobuses
##ándolas
procurarán
arbitral
privilegiada
falseamiento
Conseil
conseguido
Establecimiento
pirotécn
prodotti
gasterópodos
INFERIOR
EQ
hy
pig
punta
##fi
##nic
##οχ
##ρώ
##007
apto
##irano
noveno
##izables
##porządz
recarg
Inclus
##inato
2777
##abrisas
contemplar
basis
##ANT
Chlor
origine
únicas
observada
celulares
compartido
595
almacenadas
##redit
Subra
botones
ulteriormente
congeladores
experimento
pedirá
modernizar
PROCEDIMIENTOS
belgas
THE
voluntarias
Tintes
ruptura
Fórmula
Don
Gall
ruman
##ticul
elek
##isantes
##emas
supuesta
mapa
solicitan
##ath
documental
32005
##iff
característico
exportarse
Exper
indetermin
comprometerse
Alcanzado
inminente
Eur
Meth
PB
Pese
dit
sich
##bbl
##antiles
##tivi
customs
Elim
impre
obt
##grado
manganeso
desarrollan
##zark
abund
continúa
equipadas
dotaciones
##12000
profesores
896
negociados
##UMENTOS
precisamente
dejarán
detectadas
fenol
credibilidad
##TMS
rigurosas
rígido
RTP
Muestreo
Frankfurt
Affairs
περί
1b
BEN
Ozark
RAL
ép
Υπ
##ār
encol
##ecom
##eced
##icias
1073
importa
invol
2903
emplea
montar
acompañe
escalón
facultados
ETC
alemanas
CARB
conciencia
Merck
mostos
konk
pintura
SOCIEDAD
interventor
sorgo
Memorándum
instantán
DM
Dia
MAD
Myan
Otra
sar
stu
##dol
##trium
regener
##pone
##ogene
505
##ALIZACIÓN
comprobada
expresará
##tecas
estrechos
Oriente
liquidar
precisando
láctea
reestructura
spół
MEDIO
saturados
delegados
eliminarse
descuento
corteza
IMPACTO
Afgan
Mauricio
Estadísticas
françaises
Cámaras
reciclaje
Authority
3a
BCC
Kor
M2
Mando
Tab
##entarse
##teria
anulados
compuestas
Enter
Anun
republ
coser
emplean
460
fugas
compone
curvas
##UEBLES
differ
continuado
Isl
finesa
básicamente
PROTOC
bei
0805
biocida
Normalmente
Indicador
discriminatorias
atraves
dependencias
Elaboraciones
procedures
recubrimiento
vertederos
PRUEBA
INTERESADAS
TRANSPORTE
##siębior
Myanmar
PPA
Wal
lid
rab
##110
##åè
##onitrilo
##amido
##ánime
orales
importacion
naz
1788
evas
poz
REV
trimetil
mesure
forros
499
culturas
componen
ahum
ponderados
##iegos
sintético
pediátr
##ject
LETRA
ERTMS
Aktien
dokument
projects
Multi
restructuration
które
Afganistán
3D
CICA
Nik
PAL
Tun
TERC
nella
udziel
voc
yen
##cks
##DEN
##ÉG
##cir
##anstalt
##ranas
intermod
##ications
informen
informáticas
efectividad
emplazamientos
persistencia
plagas
quanti
##etilam
procesado
443
572
635
firmemente
liberado
prohibirán
reactor
Montre
prorra
terminar
supra
introducirán
##étricas
PESO
adherirse
aisladas
perseguidos
alambre
octavo
refundición
Subdivisión
RESPECTO
Científic
Om
Tierra
Water
Yo
becas
rollos
##edo
come
##qué
##ellan
##iers
comunica
1592
Incidencia
Propos
Anne
2759
creando
Alf
plc
fuga
socié
##framio
Polvo
articulos
alimentados
vegeta
Centrales
Depos
acumulada
sospeche
marcadores
heeft
5208
lituano
tricloro
εγγ
4°
PLA
Ré
agar
blin
dac
wład
##atas
##plo
##SEN
##amt
naves
sindicatos
demandas
RED
##ALIZ
sana
afla
cruzada
Cualquiera
Termin
controla
einer
repetición
Bonn
hectolitros
##TITUCIONES
Bayern
insectos
precursores
Günter
Len
Vä
boca
gi
poca
yl
##uana
##stad
##tolu
desl
rectificación
##guado
2037
manu
constitucional
pop
cabra
3448
representará
Restric
Arroz
SEL
Finanzas
blanca
vendedores
##51020
RESP
salvavidas
Grandes
largas
racionalizar
Especializada
descentralización
ecuación
rodillos
ovoproductos
ventanas
organisations
emulsiones
Business
jabalíes
Fomentar
MERCANCÍAS
Fri
Ole
Vas
cielo
dz
ik
náu
ricos
éval
##ative
##KE
##ïí
##errado
##ading
congra
uniones
##exiones
1268
1454
1601
##heugen
society
estaría
Seguro
chispa
SEE
Motivación
continuas
Verheugen
adjudicar
magnético
troce
domicili
provisions
filtrar
depositados
delimitadas
pinturas
Seguir
##hydr
Communaut
aritmética
ANÁLISIS
MÍN
picos
##itivo
##dep
##Co
##jär
##æl
##ulario
1957
##trop
##parkasse
decisor
007
sitúe
pleg
vola
##nehmen
##113
contribution
identificarse
acompañen
Carga
Objetos
##tów
teñ
crudos
##fasis
domésticas
abastec
violaciones
Madera
recopilar
besch
proposal
prefabr
Cómo
PEC
full
kw
viento
vera
vér
##mund
##kta
decl
##anum
reaf
parecer
##itel
objeción
pollos
##etilamino
niño
reconozca
produtos
Tacis
Board
avanzadas
mecánicamente
entregarse
térmicos
refrigerada
Hoja
farmacéutica
operative
##skiej
típica
riñón
fieltro
factible
desigualdades
##mediterránea
2o
##ced
##lem
##yera
##iska
unidos
##dien
interreg
##dador
Repubbl
desprend
##atory
##atorial
facilitadas
hidrográfica
Salónica
made
Tay
##róf
##étricos
##IGN
hexa
Peque
specif
##UFACT
Montreal
PG
lis
mari
mental
where
##zbe
##kor
##ÉR
##esh
##arlos
##tirán
##ids
##009
altas
##igos
##ferir
pay
utilizables
##enschap
##ifiquen
463
horarias
limiten
energéticas
aseguren
Leon
Oficinas
field
Valle
extraídas
FEA
otorgada
reveló
##TIFICACIÓN
##lántica
INSPEC
asalariado
devengo
Competi
conllevan
anclaje
naranja
ENERGY
cerveza
desgaste
inequív
BER
Cajas
Vel
υπό
##fir
##mall
##vál
lava
##indr
##italización
sujet
cuenten
##mati
##LATE
##endiendo
agrav
Presión
##ímeros
##opas
examinada
Recog
##21000
Colom
Nuevas
hallar
Solidaridad
REPERC
1453
Categorías
eliminado
sacrificado
adherencia
limpio
navegable
Danmark
socioeconómicas
przystąpien
Estudio
cobrar
group
Hamburg
reloj
pulgadas
socorro
Juventud
Rt
puros
##tándose
##cóp
##WS
##ùí
##anges
##sted
ino
##amment
escu
##ibdeno
financiará
insolu
2401
salido
##áceas
proyectores
especificando
457
registró
rate
Canal
turísticos
numérico
simplificados
redactar
προσ
assur
inscritas
MANUFACT
paisaje
abusos
alloca
High
Jan
M3
Mes
ao
##tten
##uve
##äß
##VER
##ξι
rem
##egio
actitud
trava
deberan
Acces
##1110
##apital
625
Segunda
estimar
096
##hout
frecuente
aumentarse
Ray
Limitada
armadas
Especies
cuerdas
puntual
INSTA
Belgique
abarcó
EJERCI
entendimiento
##Ind
##emeenschap
codecisión
marineros
obtentor
9o
Sumin
bur
basta
##vent
##FP
##inada
##torce
##lation
desgras
##erce
##età
catorce
results
pubbl
documentales
Reembol
adoptando
ensay
exportada
comparten
multim
prohibidos
preferible
ahí
renovar
asesoría
célula
englob
kWh
subordinará
APARATOS
énfasis
contagiosa
address
electoral
##orld
GRECIA
P2O5
TTE
mala
##wig
##οκ
##ecano
intern
##icago
corcho
butadieno
Cuad
##ordancia
ajustados
UEO
60598
ethyl
horario
434
reglamentarios
atómica
competitivas
madurez
balanzas
genéricas
recomendó
edades
##gesetz
REPRES
percibirá
meridional
guarda
marcador
multiplicado
Militar
trasladar
belga
nuestra
Distancia
aromáticas
precinto
Infraestructuras
premezclas
εφαρμ
Vínculo
Anuncio
Ath
Mód
P1
PCR
Xi
bed
vende
##fis
##adición
##tern
##irst
##chados
##time
##rafos
##árra
##cuenta
974
permitida
##IMA
confirmada
facultado
Plantas
##ICIO
intensific
BANGEM
reintro
Gobern
pescados
CALIDAD
desembarcar
articulación
conlleva
waar
Penal
μετα
Cuarto
fructosa
manutención
BANGEMANN
Blo
Citr
CÁL
NR
VISTA
Wer
code
gam
pomo
##tancia
##iik
##irieron
##pedido
pereced
##ivados
coches
formadores
1760
1622
2905
inspir
plana
sustituidas
##érg
negra
##90900
someta
Exterior
686
615
SE07
865
liberar
robo
desglosados
ascensores
##thern
reexamin
6104
inmovilización
prudencia
túneles
Indemnizaciones
Myint
Comunicarán
Distribución
antigüedad
custodia
Botsuana
GSM
Jur
Pública
jer
##nement
##ugn
##keit
##PIC
dex
##cija
##onder
##alb
aptas
##urus
CEI
1059
##bias
podra
2020
maneras
Propor
decidida
##013
colisión
cooperativa
##endientes
##115
459
723
fonction
recogerse
676
##álogos
Rectific
concluida
dirige
IT9
descendió
desempeñará
exponiendo
zapa
BANCO
presidencia
deshuesar
lecheras
homogeneidad
Deutsche
Auditoría
antisub
televisiva
motocicletas
prolongar
eviscer
SS
Sín
cet
dla
βά
##των
concil
suf
##egna
mat
mediana
destinarse
1002
aceptan
sucesivamente
calculadas
longitudes
FRES
##born
Función
##yndig
vulcan
accordance
Osuus
licuado
descomposición
orificios
espongiformes
CONSULTA
inquie
GC
Plas
Rund
Sha
T1
boro
clo
vä
wur
Για
##Rec
##ífu
##UA
##icum
sever
ali
concursos
directivos
2535
transformada
Restitu
##122
667
639
Section
precisará
gozan
four
cause
Institución
RESIDU
reducen
cuantas
##bloqueo
CORRES
Promoción
calificaciones
remitente
χορηγ
gelatina
H2
Queso
Vino
miti
##zet
##wij
##ume
finan
Alquil
##107
7222
##metil
582
##nost
##fax
blancos
microemp
consignan
entregada
infectadas
sintética
aleación
refuerza
nocivas
Agro
puramente
dividido
recubierta
capacity
Subsid
BASE
VALOR
Tempus
Sicilia
CORRESPON
802
Cru
City
Über
##zano
##vre
##tabilidad
respir
aplicó
1040
mercato
##CIS
1418
sind
##financia
##mbres
legumbres
leuc
0105
antiguas
convenido
685
593
##LEG
Mobil
##AMA
orientados
ejercerán
recomendadas
high
tarif
acreditado
asumidos
rectificado
solubilidad
puntu
XVII
ventilador
abrevia
habilitadas
ascenderá
Nether
tensioactivos
inmersión
cogeneración
Subraya
CÁLC
5000000
PUN
Venta
stano
##feld
##átrico
##YS
##YEC
##terna
ex2
ex080
Profes
1999320
terceras
leerse
indis
residen
juntos
iniciadas
consultivos
diferir
ejercidas
abrirse
recuento
Natura
transmitidas
preferentes
nitratos
consistan
benceno
entraña
contabilización
floricultura
precaución
suscribe
Ultramar
esloveno
nutrientes
DVB
encefalopatías
following
Takarékszövetkezet
Rundfun
1999320ES
Cic
Cypr
Prá
UV
Vene
##lie
##ylo
##yyli
##ktor
acrec
1960
##ipro
12000
entreprise
gastado
2792
##ersch
904
507
colonias
##408
empleando
##907
gris
428
opac
tonela
Finland
escaleras
##hai
termine
exactos
silenci
analizará
diagrama
Turismo
capitanes
viven
##financiera
autocar
Absatz
DKK
sueltas
comprometió
desfavorable
Contribuciones
Efectivamente
ilícita
escolares
cerco
democráticos
##disciplin
Sentencia
pediátrica
NV
Vit
οφ
##sä
##vä
##öd
enf
eso
Concre
traité
siquiera
calado
indicadoras
##sau
##itol
##mato
mays
054
025
SIMIL
regulaciones
Eurodac
532
477
proporcionó
##achas
585
asegura
##viol
abonada
explicado
##propuls
osc
sirva
lavar
EXPORTACIÓN
biblioteca
decreciente
decomiso
Osuuspankki
##tona
##sver
##ria
##äm
##ΩΝ
##inoder
1904
podpor
debera
##trag
manadas
##para
contratado
desarrolle
##022
consultarán
629
SE05
thre
precede
revestir
motivado
mensualmente
alojamientos
manifestación
exhaustivo
DEMÁS
Warsza
adelantado
sémolas
Sigmund
Codex
Telecomunicaciones
dactil
Cloro
Edi
Misiones
UR
Vac
ric
##ólar
##ost
desbas
rescisión
##portaciones
financiada
mencionarse
forzos
facturación
facilitó
fision
atun
telas
blanque
quedó
colorante
Transferencia
extern
ASPEC
PTFE
escritura
prórrogas
adjuntan
hidroxietil
funcionalidad
existiendo
semejantes
evaporación
regreso
##16CPE
REPERCUSIONES
inquietud
Fram
Pala
Veg
cien
wi
##áculo
##kin
##TC
##λών
##iser
comentario
obran
1300
3030
generada
especias
republik
ejecutado
comprensible
vaina
894
cincuenta
569
SE01
surco
sensores
Directorate
XXI
tablets
insuficiencia
macrofinanciera
ultraviol
EMAS
MÉTODOS
consorcios
semirremolque
FONDO
someten
Germany
sociétés
MEN
Mensa
Pasa
lég
##tivar
##icity
CES
disoluciones
Direction
1360
temático
indias
mejorarse
ponedoras
usan
oficio
fisico
amil
Recuerda
##ager
concluya
consolidados
SECTOR
Northern
progress
claus
aislado
##úrgica
INTERÉS
desvío
hallarse
förordning
luminosas
macroeconómica
Reservas
##σχύ
systems
##tagon
##ipropileno
imprevistas
Tesoro
CONVENIDO
##iteiten
desechables
RECONOCIENDO
6o
Dz
Ib
Ny
cres
lit
ισχύ
##upar
##gma
##hance
deca
##onte
comor
estampar
Ester
##pertura
paciente
importen
formatos
##iek
Alstom
pelos
estructurado
cron
##ikistán
suministrador
cloruros
sulfuro
plásticas
desemboc
concienci
encaminados
eviten
Efecto
farmacéutico
equitativas
teórico
abstenciones
compartimentos
ecopuntos
##indrada
BB
DC
Gales
MET
PEN
vie
µg
reitera
esclus
angular
##sources
respectiva
2400
equinoder
##fach
476
795
promoviendo
##iforme
maduración
Liqu
Abd
emprendido
business
aguja
CPP
recortes
ESPECIF
perseguido
migratorias
décision
diligencia
ralentí
VEHÍCULOS
enumera
Concretamente
Pyr
RC
XA
dien
kun
##cci
##yal
##uj
##kra
##itan
aceros
##odin
premi
1164
1517
##endrán
1831
denieg
509
plane
represión
viral
quanto
quién
correr
situar
adaptan
inversa
##ople
SE0
fisi
FRUTOS
##TUACIÓN
seleccionada
doméstica
administrar
Hojas
tuvieran
##revoc
prestatario
Refug
optimizar
Landesbank
rusos
commitments
GRUPO
pipeta
3000000
BPL
Lá
Qa
λό
##mad
##Pro
notoriamente
exchange
##illes
CEM
##dens
Insta
1722
contraído
##ijas
2916
equidad
pastelería
sombr
##129
expresarán
reservados
Nav
ligadas
alternativamente
rodado
CONSUM
ascendió
##úlgar
Instrucciones
sumamente
tetrahidro
padres
diamantes
epizootias
zootécnicos
##kirchen
Aranceles
CCTEP
AÑ
FAR
SIDA
jan
πλη
##ition
##éke
##icrobi
perros
improp
relations
Paroxetin
IIa
luxemb
decididas
Esque
##808
adaptará
sell
evaluados
irrevoc
firmantes
ALM
ALCO
pensar
electromé
estabilizador
percibido
amoníaco
sospech
francas
procurar
tradicionalmente
risk
fusiones
remuneraciones
Toxicidad
Perspectivas
volatil
ASPECTOS
equinodermos
Daph
Ef
Liv
R3
Sede
nem
##dro
##uz
##ví
##osil
##ery
##aliment
suiv
##irurg
##eli
##daje
autoricen
traten
cartu
cerdas
3072
Consol
##ENTAL
legisl
basar
complementa
756
728
##metría
facilitan
##TAMEN
revisten
señalan
##824
transitorios
reproducir
claves
rechazada
##IPOS
higos
Certificación
autentic
fósiles
subsiguiente
suspensiones
disuelto
conmutación
British
redistribución
UF6
DICTAMEN
congratula
7º
BS
Nep
geo
čl
##dulo
##util
##ého
##FOR
##χεί
##arius
##eler
intercal
maur
DESE
coyun
competir
2915
vigil
8501
recogerá
##tizens
peligroso
remolc
multiplicando
deshuesado
hidráulicos
inerte
présent
TEXTO
αρχές
Tayikistán
Log
OLE
##nego
##sénico
##rin
##vich
##PER
##ęd
##θμ
##icanos
##ints
##iske
##izz
acerc
impiden
transat
manteca
##parabrisas
Report
016
combur
##99000
estimul
film
##vilup
fotom
comprometan
graduación
ATCC
Occidental
necesiten
diplomáticas
notamment
indebido
sospechosos
circunscripción
Praha
diesel
JURÍDICOS
cotidiana
biotecnología
EWG
bénéfici
Ghana
Proposal
##Indemn
microempresas
835
Cá
CB
TAMBI
pocas
##1ES
##tión
##rait
note
##formo
sou
##ERYL
##ife
##UND
cabello
473
donación
##ská
frascos
analizadores
##UESTAS
colocarán
acordaron
Libia
comprometa
flotas
incoado
estipulados
Frecuencia
type
extensiva
improb
improve
trimestral
comenzado
edulcorante
enmarc
tunicados
Global
finanzi
recargables
Aung
Bov
PIN
bares
roci
two
view
wit
##hör
##wend
##wards
parás
##itta
##irió
##lato
prenda
Protocol
buenos
reside
##endiente
933
483
celebren
523
657
##bour
revistas
precisarse
pertenencia
NACIONAL
##BLIG
apreciar
víctima
Sexto
reflectante
semejante
craque
Infraestructura
ενισχύσεις
péndulo
Netherlands
Refugiados
AIR
Bl
BUR
LIC
Mig
OBLIG
PEL
TB
TOP
nerv
piso
##cito
##enil
apátr
##istal
##trica
suscritos
Parlamentos
mark
cohe
2075
1515
##rándose
contratar
##207
organizadas
418
447
##603
licor
fisc
destruc
sulfuros
Racismo
habitáculo
Orientaciones
protectores
cosmético
ilimitada
isótopos
Patatas
MÍNIM
TAMBIÉN
712
Budget
CCR
Lev
Strasse
atras
cúb
ei
grafito
sid
uma
##BLE
##GN
##ϊόν
##tige
##blan
estancos
consista
##ums
##icato
Latv
finés
region
preve
marea
Consular
##mittel
Requisito
012
médicas
951
litio
homólo
añadida
417
ES4
Miner
subsistencia
plantearse
ingestión
semanales
IFOP
lámina
catalizadores
reforzamiento
fundadas
prév
folletos
desequilibrio
Bratis
endeud
##ospod
desmantelamiento
Banglad
Citrus
CIS
Eje
Fus
Impl
Jefes
TN
Tri
Vcprd
bits
búlgar
ido
##tent
##pan
##TANCIAS
##elet
aspira
finance
##cope
contrachap
subpro
2320
disponibil
miligr
bastará
recin
postura
preparatoria
##1210
##607
concentrar
encargo
##UMIN
Nacionales
imponga
supervisará
exponer
solubles
constatados
enfrentan
Expres
pilares
België
SGC
interacciones
confeccionados
plátano
Participantes
##çao
Mezclas
desprov
instaurar
restrukturyzac
MERCADO
ayudará
Giunta
Tercer
Licencias
EMPRES
środków
Enfermedad
##ATEGOR
encolado
fisicoquím
electromédicos
Gases
##etes
##ae
##vik
##óticas
perpe
desar
mają
asunción
diariamente
1400
persecución
##ARIAS
opere
certificaciones
creer
organizativa
618
enviada
##ατά
admitirse
encontrado
##ucht
reasignación
revelado
pulpa
EXPL
adherentes
operacional
gratuito
inscribirse
relleno
appropriate
κανονισμ
cumplimentar
##albúmina
CATEGOR
Hon
Hij
Justific
XT
gew
ther
wird
μπο
##401
##ôá
estanc
##duro
acril
##elen
finas
mediano
cortar
2014
valer
##alizarse
##encies
2135
##turering
##atte
trien
verdes
##307
regularización
Expl
identifica
526
##evol
716
clasifica
0408
Products
recomendados
emergencias
aclaraciones
RELACIÓN
matraces
estuviere
Aduaneros
##hold
Constitucional
Ilimit
refugiado
7307
prevalencia
SNCB
incandescencia
PROTOCOLO
Aum
BIEN
FMI
cré
fö
fuel
gatos
μm
##tning
##ffen
##muebles
##put
##ws
##emens
anillo
##ierung
##ífica
indicaba
continúe
##209
##derung
ejecutivos
923
##amine
419
487
##bilité
sociale
consiguientes
protegerse
##29000
abonarán
Desarrollar
analiza
diafra
desarrollará
refrigerante
motivación
implantar
diplomática
discriminatorios
FINANCIACIÓN
transmisiones
afirmación
##balto
Señor
Laboratory
ondernem
húmedo
Árabes
ex640
##sunami
MANUFACTURAS
1er
HEX
Mün
Rati
habl
lec
vector
Österreich
ποσ
##tní
##utu
##udas
##COS
##isco
##uncias
##itariamente
exhib
##paz
##iosos
2185
2988
substancias
formation
sonoro
3906
fueren
consulte
trattato
dotar
527
##écom
##atisfac
amónico
artik
suplemento
tejer
analizó
##idiano
bomb
curvatura
Aduanera
barrera
##tecnia
artefac
##ICHEN
oponerse
desafío
Ambas
arrenda
naranjas
##zjoni
dignidad
conversaciones
Lietu
contrarrestar
tonelaje
0S
Gros
JUS
OIF
spo
##ván
##isol
##tativos
ex7
##umentación
##uroc
internal
obed
12°
##inger
##cionalmente
directivo
2358
##gens
##anth
##raft
públicamente
seguidas
instaladas
fabrican
Resoluciones
variante
metrol
895
778
proporcionarse
SEGU
##UEGA
físicamente
those
adquirente
rutina
staff
habitantes
Delibera
óptimo
Abu
Society
sexos
Emba
intercambiables
estándares
desplazan
prolongado
##copio
cuantificación
Benel
Joint
demandado
resumida
Hortalizas
estanque
aconsej
Ecuatorial
GOBIERNO
Ángulo
Aktiengesellschaft
Rectificativo
815
Bir
Fig
Líneas
Mut
afin
sativa
##ova
##bados
##pens
##αφ
##ταν
##olla
##arial
cutánea
##abel
seriamente
##osition
##rosis
##quetas
cortos
sie
concordancia
1423
LABOR
contención
Altura
butilo
colas
talib
muestren
quir
indio
seguidamente
montadas
##998
chocolate
asegurada
estimados
aportan
après
##hoxy
ANTI
Transferencias
##waż
reconocerán
embalados
acreditar
##hrer
catalítico
repetir
Extracción
Apoyar
consejeros
Elaboración
##θηκαν
hydroxy
ODM
Módulo
Benelux
N2
Sver
phenyl
##ius
##NOS
##merc
##wirtschaft
##tizado
##anesa
##unus
informadas
1302
organism
constituía
##ISMOS
repr
Espa
montant
Cox
organizará
denomina
531
curado
formularse
probetas
biométricos
intentar
uniformidad
Qued
ARR
oxidación
actualizarse
influyen
rechaza
Solamente
vuelva
reintegr
enfri
concebidas
Aplicaciones
extintores
MATERIA
relojería
Brussels
extradición
hospital
Cámara
biodegradabilidad
extienda
historial
Restricciones
POT
ríos
sy
že
Δημ
##odio
##rón
##En
##ла
resistir
ressources
Consum
generan
##ISIONES
Cuba
respondieron
ajustada
##409
455
expresan
proporcionando
affec
subsectores
circulen
Moz
décima
micras
planteado
TRA
detectados
defender
aislantes
comportamientos
argument
diferenciada
Westf
franquicias
html
Variable
microbiológicos
carcinó
incurrido
Africana
Riesgo
Compensación
Takfir
Hijra
RD
Xenofobia
dólar
hemor
mê
vectores
##tung
##EP
##íticamente
##cine
##cinas
##iche
intac
cuencas
##usas
##iende
informador
##rág
manométrica
2101
2117
exce
##amenti
##ISTE
cumplían
planchas
notificantes
preparatorios
436
808
##EDT
497
441
594
racismo
##écur
696
concluirse
sílice
FRA
acontecimiento
##31000
preferiblemente
incrementarse
##ursu
orgánica
asume
##corpor
urbanos
Economic
##POLY
histórica
##zenie
satisfaga
##obje
contraparte
Mirtaza
OACI
Toxicomanías
NORUEGA
antisubvenciones
D1
SON
eg
iba
penta
##éter
##xid
##PM
##tiques
reverso
Conduc
nature
incluyó
financiarán
presentaciones
offici
##árse
sanos
Cham
regulable
Markt
619
666
0714
Materia
Fabric
##ikan
##232
difiere
dép
PROYEC
apoyacabezas
ruego
MEDIA
##ρισμ
reasign
protector
lactosa
anunció
IGS
technolog
SUSTANCIAS
cuadrados
griegas
troncos
AUTORIZADAS
STEICHEN
Bratislava
700000
Lás
RIES
kt
##opea
##dera
##uis
##EUR
protagon
##acción
maci
##rust
##baar
1466
reflex
respect
denuncias
volante
tomados
dudos
##117
elaborando
situation
557
usado
falsos
747
cubriendo
##170
probado
Perfil
terminará
pudiere
vulgar
Boletín
USD
##íferas
espontán
inteligente
Number
reemplaz
ilustr
pantano
desenc
sugerencias
swaps
Armonizado
Annex
Alcohol
revalorización
παράγραφ
RESIDUOS
Esquema
Bangladesh
Gaz
N3
bras
lider
##lement
##lisis
##hre
enrasar
##row
##struc
cuente
##illan
desestim
Comunitaria
cató
card
##trocin
estatus
fait
3907
##1190
comprados
elaboró
cele
permanecerá
558
permitidos
compara
Sustancia
convirti
exclusiones
##35000
promote
affa
liberados
potenci
Capit
##cing
BANCA
PRINCIPIOS
IRL
Renania
asequ
HYDROXY
enmend
anfitriona
dispersable
indeseables
Islámica
Síntesis
7000
8000
LL
O2
σύ
##band
##ίων
##tit
##inados
aplas
noc
noche
compres
hat
ador
##copi
sinón
Noci
notificador
sustan
méd
918
correrá
##ROB
tratándose
Suprim
5402
clasificaciones
euromediterráneo
##utta
increas
fluoro
##USO
micróf
supondría
stat
##acah
clorhidrato
##ιακ
suspenderse
Habrá
letón
PREV
interconec
aromatizados
naftal
Dosis
acuerden
PNR
fiduci
sanguíneos
Salmonella
glucanasa
Depositario
CÁLCULO
estanqueidad
4a
7o
F2
Preg
Uzbe
uk
##ná
##pensa
##ρίου
##ιο
probeta
cuándo
production
##rang
##clos
dispos
Laos
Ens
seguras
11°
##judi
fricción
##ógrafos
##404
Existencias
774
compensarse
##mascar
##carbam
Ropa
Población
indicarlos
aleatoria
sexta
explosiva
##MITI
impulsos
Panel
Freder
hubiesen
inteligentes
enriquecido
membres
DUPLIC
Recipiente
Delegaciones
Communauté
800000
90000
EME
FM
LIM
MD
Rúbrica
Wales
Zak
dall
sing
##dal
##zna
##uan
##ULACIÓN
##ÓL
##tuar
conserven
##aben
tope
##cionalidad
fundido
méthyl
##ALE
líder
9130
Dire
peajes
##139
comparaciones
##iure
679
elevar
##ugía
male
justa
esperado
decyz
acreditados
análoga
Poste
renuev
##irasol
170230
agotamiento
triplic
Stocz
Postfach
itinerario
Técnico
διά
##ministerium
général
profundizar
Enterprise
volatilidad
LBB
RÉG
Sign
Tasa
Vida
goma
hemato
name
ocio
##ots
##ácidos
##rico
##pis
##orios
##tober
##teza
productiva
particul
1696
##ambique
constituían
polipropileno
definan
they
sustra
ejecutan
preciosas
Pago
caracterizan
##304
compararse
Marino
ordenada
evaluadas
##222
##ability
##663
planteados
olivos
adjudicador
Loire
introduciendo
effici
cofinanciados
intensificación
informatizada
Holstein
SANITAR
cercano
década
Específico
hábitat
POSTERIOR
Igualmente
Igualdad
nutrición
vertedero
Beihilfe
radiocomunicación
##μφων
Ejemplos
ESTABLECI
EJERCICIO
Baja
Emi
Geográfic
Khin
Nucle
OJ
Rech
Roc
lad
oh
ple
καθ
##ný
##lum
##yre
##Ex
##orados
##rat
research
##acet
1058
coerci
valid
salu
2700
limones
alimentar
Pays
##ámico
757
Arco
##boya
incidencias
implicado
tamaños
turística
##ramientas
##änder
impositivos
intercambiarán
subrayar
purificación
Division
ilícitos
nuestras
pormenores
conferir
Subsección
interrumpir
Chemicals
corporal
ORIGEN
inaceptable
almazar
Almacenamiento
οφει
##viluppo
noctur
Avenue
ECA
Llev
Mc
##nio
##κης
##stand
##torías
##logo
##acloro
internet
reclas
##deos
especialización
pasan
empleen
fabricada
##997
convexo
647
##meyer
asegurador
##ACO
##eguen
danesas
supér
remitió
cerrarse
distribuirá
SpA
Bayer
historia
retribu
Aduana
imprimir
aislada
incumbe
##LEMENT
Variedades
Copenhagen
BILA
fluorescentes
imparcialidad
remediar
Colombia
RÉGIMEN
Fores
Pier
SUR
Vi
Οικονομ
##ése
##vir
##jana
##JU
##dium
restos
recal
Aceh
##ijación
puentes
crean
comercializan
916
envía
antibloqueo
trabajado
555
down
expresó
reconoció
##2900
##UST
maduras
##ischer
reaccionar
extraídos
Caso
##olvente
##61010
Comercial
tableros
asumido
Quin
Establecer
technical
##cloruro
##éêü
Destinatario
interprofesionales
aglutinantes
coûts
leucosis
miligramos
Justificación
Mozambique
Ethyl
Pará
Rich
Sand
dib
hijo
##UB
##aso
##inado
ininter
##unts
##CIOS
Anal
tallo
tardía
consten
Adjunto
divor
montantes
depur
optado
##icultores
Exclu
##991
causal
molibdeno
rápidas
verificarse
##ilanasa
marcada
acelerado
artesanal
codificada
salvedad
Laborato
habilitado
5407
comenzó
##FRICA
desmontables
coexistencia
evasión
ikke
dactilares
Cór
PIR
Vál
kN
sist
word
xilanasa
##yi
##het
##GAS
##υπ
##łą
##iguar
casein
##determin
top
1431
1445
vehic
##014
##018
tomate
35000
Siemens
Prescripciones
sanas
observan
granul
forro
621
848
##507
turismos
explorator
interoperables
Phar
pretenden
destacado
terapia
alcalinos
voluntariamente
Integración
unilateral
INCLUSO
autorregulación
prestamista
pigmentos
Υπουργ
702
Gew
Lju
Nuevos
##fel
##camente
##urea
##jera
##λε
##DR
conejo
##isoci
##leados
Intel
Incre
controlará
servido
Repúblicas
envíe
procesales
451
permaneci
##124
##ianzas
recuadro
recompra
centímetros
realistas
multil
frutales
##2500
##cleta
colector
atribuye
despachados
Principales
ASOCI
breves
question
Extractos
neutro
7304
rapport
ascienden
AVR
tocador
drás
pormenorizada
GNSS
desventaja
above
imprevistos
Hexal
Técnica
CONTEMPL
Armonización
contraste
imputarán
opacímetro
improbable
Fosf
Gén
Hydro
cera
tsunami
št
##aten
##KO
##ondo
##adir
elabora
##idal
unter
reivin
sua
alber
##ariaden
10993
1259
regeneración
1507
included
3025
gaso
2730
repo
hand
##809
753
peut
846
Intervenciones
535
aranceles
Arr
registraron
792
moldes
interpretaciones
SAINT
acondicionadas
##lenmeyer
suministrarse
agrupadas
despachadas
asesorar
oscil
merlu
calorífico
manufacturados
Camboya
redondo
tramit
reforzarse
GLP
histórico
clarificación
Tomar
entendido
inorgánicas
Homogene
Sulfato
intergubernamental
remesa
BIENES
ininterrump
819
AMB
CIF
Sería
Vla
lej
##aire
##mec
##pps
##arbo
enmal
quel
##inidad
portador
apun
##olición
##ángulo
##tria
CELF
##formance
Lagos
##ference
traves
##cipes
empi
##cher
contravalor
2250
2286
poliure
2922
vigilar
##OPH
##mbolo
##crilato
908
trabaja
##904
pelág
751
estudiarse
grañones
533
Políticas
guantes
Prior
facilitación
licenci
fronteriza
0802
fix
staat
##ABR
Loi
municipal
masiva
deducirá
ordinarios
Conformidad
Complement
René
profundo
NMBS
emita
ANIMALES
agreement
générale
golpe
recoja
##idelines
veracidad
maurit
##écurité
caseinatos
enmalle
4A
Kun
##cord
##ylamino
##H2
##ícipes
##iculares
espar
esmer
anhidro
max
mapas
1348
EURO
2529
2921
capturados
2707
leur
Realización
##IDR
verá
##luoro
##cuitos
comunicaron
536
ACTIVO
596
donc
Comprobación
potenti
paletas
oliv
intervenga
##kou
##kow
correos
Ninguno
EFTA
autónomas
ampliaciones
subcontratistas
LMD
Suplente
05021
repetibilidad
comerciante
##xxxxxxxx
Aprobación
capturadas
sémola
ribereño
huérfanos
surta
aeródromo
Pasaporte
cohetes
celebre
70000
Ast
Dadas
Fomento
Gemeenschap
bran
vl
éch
##cken
##yb
##utilización
##ωτικ
##UX
##ža
##entabilidad
enaj
##inus
##ilia
Concentr
##rante
##echu
##porto
1055
normalizadas
manualmente
Provis
direct
ofim
montarse
Marcas
##unauta
##enaje
ESTRUC
##ITAL
0302
824
circulan
dejando
jugos
Guad
Placas
diplomáticos
disfrute
applicable
magnesita
deportivas
régime
Continuar
provide
Fuerza
Científico
FEAGA
Emiratos
Aero
Clor
Stora
##sis
##LS
##éd
##pado
##konom
##ίζ
##quillas
##iophosph
1365
expiden
sinter
##sat
méth
internation
##INC
dure
circonio
##uctures
##aña
dobles
538
chal
##163
cubrirán
##tycz
flexibil
ciclohex
reconocerá
Pescado
precedido
géneros
minimum
Obligatorio
deliberadamente
Responsabilidad
compartimiento
DEBER
reajust
Alcance
Stadt
desastres
cesionario
diafragma
bú
jard
ku
##the
##fat
##ně
##bru
##μεν
##asis
##ericana
comandante
##bly
##ciaciones
Estocol
desag
Conten
##porting
cocer
##ocon
normalizada
lub
especifiquen
valorada
##021
colección
Retir
sustain
013
ciruelas
proporcionales
##305
gramo
acepten
visuales
comprobadas
472
suministra
Prendas
Informará
roja
##ízení
##59000
olor
extrajudi
multiplicada
##ACTOR
TRANSITOR
indebida
advertencias
homogeneizar
Tomando
repercutir
dígito
Télécom
Dimethyl
T0039
Tarifas
ευρώ
salubr
Estocolmo
DCI
Sb
Tónico
hé
nexo
pand
ut
ud
Οι
##dre
##ακ
sebo
##top
##itec
estuvo
##olium
aneja
antem
permet
##ecilo
##octad
##brúbrica
##ENA
platino
subord
pujas
cumplidos
instruc
industri
obtenciones
sódica
aprobaciones
exigible
SITUACIÓN
##ciosas
mee
614
semipre
665
075
##OLÓ
priori
surve
##669
##imittel
Funciones
Point
ponderadas
rodada
refinería
reforzará
PPG
Aplicarán
lingo
británicas
psicotrópicas
democrático
Combusti
alfab
decisione
estireno
##eenkom
intergubernamentales
Prohibición
GUINEA
##zneimittel
Maßnahme
##objetos
salubridad
antemano
CUR
EPI
GALI
TG
acid
lum
ná
não
αγ
όπ
##LOS
##KS
##ican
##ams
reques
##terap
estonio
desf
Concentración
compiten
1010
cobalto
COPOLY
certeza
presentando
exportacion
resultaría
##atem
costillas
##SET
ADICI
Arzneimittel
Minim
693
causalidad
##558
borr
nitros
Denominaciones
bodies
impresa
incrementará
Ministerial
zobo
CONSERV
political
reinteg
diferenciar
Indicar
concerniente
desembolso
used
rész
ionizantes
Ajuste
kapita
inmateriales
declive
pomoč
5a
BIS
Kas
K2O
girasol
nab
εται
##cum
##ping
##publik
##öm
##UV
##cific
##ars
##tek
aptitudes
##abad
serológicas
##dosas
##ASA
validados
Porto
##turalmente
funcionando
##308
inspeccionar
recogerán
sucesos
Maung
comprenderán
Isla
autóc
viii
quedando
hered
destilador
llamamiento
descargas
RESERV
Soluciones
ocupadas
CHLOR
##mesas
FINANCIEROS
patógeno
hidráulico
SERVICIO
Gracias
przedsiębior
COMUNITARIO
Alcoholes
ECONÓMICO
triglicéridos
interregional
##μφωνα
semipreciosas
Baden
Códigos
HEL
Mis
PBS
imit
vio
##gará
##ék
##WA
##jados
##TEC
##όκ
##ípe
##tieb
retor
retrac
cupón
##eladas
1207
solidez
##udías
comercialice
687
reunirse
787
oportunamente
regionalización
vendida
ocupantes
Especificación
SUBS
levante
Indicadores
mixtos
capacitación
precintos
suscribir
Remol
acusar
επί
fluviales
Vegetales
artefactos
desencaden
enajen
CPS
Hes
IPC
Memb
UAE
each
äé
égal
##êche
##χαν
##itual
##queros
loi
podran
corro
carencias
##nak
##ADES
funda
##rita
2223
IDENT
tris
011
##ANCE
diver
humanitario
favorece
ESTR
##ITA
Recop
Perú
Perio
detectores
siguieron
##polit
desplazarse
apreci
fomentarse
Modalidades
TARGET
Metodo
inscribe
##térm
INVER
inherente
##ínsula
Administrativa
aspiración
Angola
semirremolques
matière
emoliente
Sverige
Hil
Ps
Usta
ful
##sional
##ZE
##xa
##σα
##UAL
dedi
repatriación
esencias
presun
##elijk
impuso
patrocin
adsorción
medirán
concent
concuerdan
2237
906
leído
volframio
##darinas
##306
abrirá
##9910
##eben
544
##achi
694
continuarán
Islam
encargarán
##ρού
spole
hilado
##ways
matrimon
Plata
desconec
dependiente
tym
neutralización
orificio
##evaluación
ORIGIN
Virus
reorganización
época
reestructuraciones
SEGUIMIENTO
zobowią
Divers
PUE
Sar
Sul
Tos
##tómetro
##shire
##TL
##ög
##εω
##íï
##δια
##izer
esencia
##lav
seran
serias
associa
medicin
correa
15°
cerezas
perseguir
##017
##2090
precioso
3823
infancia
mantenida
dureza
##prz
monoc
##309
##1290
##996
metoxi
china
##TEL
TRI
goods
Green
##olesta
dieta
##oloč
NACIONALES
recurrido
manifiestamente
infectada
Herramientas
armamento
Basmati
προϊόν
EMC
Belgium
recubiertas
##IENDO
Espectro
##OXY
abogado
about
Estadística
desleal
favoreciendo
exceptuando
droit
Comisario
ADUAN
DUPLIKAT
nodriza
elasticidad
Altmark
Uzbekistán
MEC
Pep
Sando
Sard
Tall
buroc
lejos
opa
rules
Ελλ
##sil
##ąc
##him
##vá
##ward
##erd
##tach
##oden
##pere
paja
certain
insatisfac
captación
valora
Deuda
fría
especialista
014
0104
residenciales
ejecutados
envíen
##cura
454
##portun
8703
comparativas
contribuyentes
integral
##ovi
##509
complementará
Schles
precoz
planteadas
Secretarios
##EMA
uniformemente
ausp
impresiones
DIMETH
assessment
FINANCIERO
5205
banca
0303
rechazadas
SHAR
desproporcionada
výrob
deducciones
inconven
oscila
investment
prerroga
Cuadros
LABORATOR
wordt
1S
5A
GH
KR
Mur
Nm
frág
know
pid
##sus
##maz
##MENT
##Par
##że
##entador
##icol
conozca
parrafo
Compr
pagan
Directores
dicembre
##ENO
sistemáticas
1800
2932
puolesta
503
##ALIDAD
##137
dopra
Interreg
786
##sky
##225
negoció
##ικός
recuperados
##ecerán
diluciones
extraído
Guía
sufren
COMPROM
diluidos
reexpor
BUD
Economica
6203
pisos
triángulo
ADMINISTRATIVA
membrana
##englicol
résul
Special
Adaptación
estufa
menoscabo
monopolio
##érmenes
nórdica
λόγω
multilingü
COMPROMIS
Eras
Graf
Kins
Rhein
Títulos
Wirtschaft
gab
kV
##ψη
##stre
##ometano
cuater
##quitas
disip
produccion
Endo
##ganda
arsénico
mares
Actividad
##ómero
Seine
##015
Cumplimiento
plural
##cana
infrar
trastornos
758
704
849
celebraron
661
firmas
Italy
localidad
fracas
requerirán
rápidos
interpretar
discriminaciones
##ależ
consignar
atribuir
##ICID
desempeñado
desarrollada
rechazado
percibe
imputable
percibidas
RELATIVO
francos
invitados
disciplinas
FINANCIERAS
informatizados
sobrepasa
acústicas
OFICI
border
británico
Tomé
divergencia
sencillo
AGRI
décimo
decisivo
ribereños
fluvial
estéril
traspaso
nanotecn
##üssel
ACCESOR
évaluation
Suministro
cuatern
MM
Neg
fight
ryn
stá
##eva
##yg
##ying
##bind
##gin
##vod
##αστ
##ðï
##ánicos
prestada
pavos
Parece
##chus
##endarios
establecía
financière
contraídas
##206
4056
UEM
niñas
reconciliación
551
485
646
franja
514
##achsen
Finance
aportada
propongan
Castilla
congelador
analys
##wever
simulador
fomenten
tramitar
Neum
conseguirse
Poner
férreas
Falta
craqueo
anormal
environmental
##OURG
catalogadas
Mik
MOT
OTAN
TS
Zn
first
jefes
pusieron
är
κρά
##centes
##hla
##voc
##GAR
##ostra
encla
endure
##isal
supues
1959
contre
##acea
interdep
added
1591
008
reposición
##114
##903
Cotizaciones
Market
sellado
598
review
once
##229
Ministero
##cleos
##ρος
expirar
sulfonato
partícipes
abasto
Depósitos
##enosulf
atenuar
abordan
Instrucción
erradicar
mascul
##1019
misiles
quality
inadecuada
Ambos
Proteger
Árabe
salmonela
aguardiente
Reembolso
Schleswig
supuestamente
DF
Famil
Lac
aim
σημ
##yes
##hasa
##έπει
lastre
##amicina
unido
Combus
##edos
##cles
1265
rector
coj
could
2062
##ASAS
cualidades
cumplía
especialidades
##vela
declaran
mayoristas
3500
equipada
Diferencias
mejorará
05020
ordenar
568
almacenista
##anah
promotor
attività
emisora
##14000
retirarán
817
Leona
convertirá
##óxico
trataba
oligo
aumenten
Poten
infecciones
HCl
repetirse
cumplimentarse
Ausencia
rechazarse
fertilidad
Solicitudes
petroleros
Crédito
diligencias
Legislación
Systems
Recuper
anónima
Utilizar
Toler
confitería
mechan
Ljubl
C11
Code
CFC
Mr
Rel
ôïõ
##yh
##utar
##hos
##ан
##tuur
aparezca
##ether
patas
##ruir
dictada
##leos
1516
Inmuebles
009
##iesta
##ICES
##10900
must
##AND
Chicago
##909
individu
hidra
ACCIONES
audiencias
lenguado
subsección
##22000
increase
ANTERIOR
Monetario
deuts
remitida
atributo
conocen
distribuyen
FEP
universidad
coordinadas
##angzhou
relevancia
reexamen
deducirán
caballo
acústico
Grund
Mezclar
citizens
Visados
okre
salarial
Vidéke
choques
CTV
INCLU
reposar
DNI
íntegra
procédure
avail
Sandoz
Erasmus
Kinshasa
Dez
Fel
HO
Hip
có
##cs
##busti
##350
##jer
##μή
aca
peritos
compan
interponer
1095
evid
Proxima
2501
estacion
generalizada
anima
participaron
9110
instruments
sigla
piper
sembr
detallan
aportados
concluidos
##efore
Agric
adjudicará
lácteas
suministren
suministradores
cruz
provoca
meridiano
##issão
adjuntarse
Limpi
hexano
0304
kilómetro
relojes
plusval
STC
druž
comprimidos
catadióptrico
Washing
MobilCom
Warszawa
Mutuel
sistém
Cz
Dun
H2O
MÁ
Puntos
Sosten
quer
sú
xenofobia
##sh
##ωγ
##řízení
##ΤΕ
##inalmente
##tiveness
antenas
disulf
ads
recojan
##icoques
2026
1673
2909
Refr
inicia
negarse
##mediatamente
CUAL
885
##billas
##504
señalada
electrónicamente
##231
aumentan
manifestó
Emplo
Calendario
retrasar
Err
construido
habilitar
##getto
##ορά
recíprocas
intensa
100620
denunciar
IMPOR
Identidad
##ementinas
visualización
radiológica
corrosivas
##διά
inhibición
économique
PRUEBAS
kosz
prudencial
Prác
atuneros
Ratiopharm
repoblación
Aci
AIS
Clim
Has
Jama
kter
nep
##υξ
lap
##ectante
induc
##tation
##tory
##tiche
1060
cote
##cht
secteur
2918
levan
costera
propileno
pasen
##405
optativo
554
491
627
identificable
suministre
Armas
etiquetados
##oroeste
PROVIS
sensi
urban
APÉ
diseñada
take
ganadera
##ILLA
food
torn
Libanesa
gestionado
##épubl
depositará
árbol
cilindrada
zoosanitaria
##CIDOS
árbitro
subordinados
atmósferas
semiblan
HYDROLY
##αγωγ
inefic
viernes
TENIENDO
litoral
encabezamiento
POSTERIORI
corrobor
ACCESORIOS
1o
3B
Avena
Apertura
GF
Muta
Pap
Vor
Vall
ZA
dime
i2010
meti
nueces
pm
syn
##plan
##TORES
##τέ
##DF
##θυν
aliv
1949
Contiene
partie
designen
CAMP
culmin
592
centrándose
Matra
cálcico
Carre
##ellen
filamento
##IRE
##lazas
reparar
08051020
communauta
hierbas
PERO
RELACIONES
diferenciado
matriculado
vitícolas
absorbente
Fluor
μέτ
palangr
sencilla
procedure
convierte
cuantificar
Explotación
entornos
LUXEMBOURG
terapéuticos
odontó
arquitecto
frontal
INSTRUMENTOS
minusvál
Côte
rabia
##mascarante
poliuretano
SHARRY
Eco
Lad
Strengthen
ceder
zum
##venta
##λή
##ől
##rey
necesitar
necesite
Activos
subtipo
##azones
creci
fabrica
##ECES
913
tembl
registren
atentados
##144
##IBUN
liquidad
reaccion
venderse
microdis
excesivas
##bordo
##742
sabe
##halt
ocupados
flotantes
artesanía
descubier
##berget
salmuera
Olímpicos
DENOM
PRESUPUESTARIA
decisiva
monitoring
ENERGÍA
Environmental
Kirgu
reagrupación
coopération
OPERACIONES
rátidas
VÉASE
##Record
ALCOHOL
quirúrg
GALILEO
BO
CAD
Ciencia
Grado
Kan
Lar
LME
Macao
Sala
UA
##ramiento
##bico
##GM
deta
##itores
aplaz
cubeta
Reglam
Contabilidad
##ecidas
informativos
##rágica
cartilla
##CIN
involv
##endrá
operator
Alta
textura
camión
adiciones
SIF
708
doit
845
ESC
779
579
634
atten
pagadero
Socialista
##ulfato
ARREG
impresas
pension
fáciles
60034
##ρθρω
indelebles
##διο
Treaty
COMERCIO
strategy
vicepres
gestiona
BERD
##financiaciones
disponibilidades
Ilimitada
TRANSITORIAS
Recopilación
Washington
ARREGLO
8o
812
Abr
LIT
TPI
UI
air
belo
dor
niv
tuo
άλλ
##WP
##kat
##klar
##entada
##omi
estancias
alif
##ionar
##tilación
1148
cocinas
formarán
##bai
0025
sale
##024
##025
pow
##906
##905
456
7213
645
571
donaciones
vacunadas
##ield
analizadas
##logie
biog
amparados
capitalización
Delta
##omotoras
##52010
##propyl
Posta
catalíticamente
ATC
desconcentración
ESTAD
espumosos
ocupar
subordinada
cobrados
##IONALES
VEHÍCULO
Puerto
Reconocimiento
Sustituir
TERCEROS
713
Bet
Ci
Ke
Nic
Viz
ZEE
##yw
##hm
##äng
##øl
proiz
##emper
portal
##ilas
acquis
##umber
Directriz
##ificadas
añada
expli
##ENTAS
REUN
Rela
beneficiar
electrol
855
563
doma
confirmaron
billete
Disposición
tai
##6219
magnéticos
1083
convocará
CARNE
ampliará
farmacológicamente
Dispon
archiv
fosfórico
dinámicas
TRANSFORM
sufragados
CMR
absorbancia
Geral
conglomer
##ογή
amoniaco
preveía
παράγραφος
Frederik
όπως
7°
Alam
Data
Hacer
Mala
Nitro
Sm
gérmenes
hen
tis
éticos
##tà
##szy
##ax
##éta
##ôï
##enad
##entadas
##anato
1950
1929
Conjuntos
##elf
empuje
##bau
##ínico
##tionen
clem
beneficia
avo
9150
representadas
##tomos
REGIS
humanitarias
siglo
conservado
indicativas
fluidos
fomenta
Organizaciones
Deberían
both
venido
desinfectantes
Representación
Partiendo
Expresión
Tampere
extraordinarios
##orsz
deportivo
subsidio
inmobiliarios
embarcar
pantógrafo
Muestra
portaobjetos
hospitales
Millones
Ferrovi
SESAR
José
legislador
hemorrágica
4000000
Bul
DUR
FC
H7
Herc
Jun
Pérd
Tech
Ventas
dél
lente
rosa
Éstos
##pad
##UCIONES
##ÍM
enforcement
paro
##uring
maquin
pañ
determinantes
##misible
costado
quiz
iniciada
##luencia
seguía
Expedición
479
547
0713
redun
examinaron
##TEIN
Finalización
065
private
terminología
lácteo
deux
##READ
secretarios
panadería
muertas
insuficiencias
diferenciados
MARC
Egeo
vulnerabilidad
ordinarias
carriles
ANIMO
discrepancias
DESTINADOS
gozarán
admiten
copolímero
Pedro
##OPROPYL
ESPECIFICACIONES
πληρο
##structurering
Provisional
899
Ficha
Mario
Pic
fec
rich
ÁFRICA
##IER
##ück
##cines
proba
acor
1951
contamina
motiva
##ideros
1110
empu
espejos
reputación
crearán
##027
continente
verti
pliegos
basen
consecuentemente
apoyen
498
658
##tho
864
competition
CENTRAL
acogido
deseado
##59ES
statis
acumula
candidaturas
admitida
##ORMES
##forts
simplificada
matrimonio
##cyj
RELATIVA
##ándolos
sensibilizar
lineales
espumante
zoosanitarios
Tecnologías
Ausfu
cualitativo
FRANCES
cáncer
afiliación
##tárico
convierta
française
músculo
debatir
veintiún
espongiforme
hidrólisis
Coeficiente
2000159ES
CAMREAD
##ellanas
Profesional
##épublique
Herceg
801
Acido
Dil
LSH
Sens
benci
justice
ál
##kie
##adación
##andi
unida
sueros
Concesión
Law
##uerzo
transit
financing
2826
evalúa
##ISION
reposo
trece
indones
consumidos
ADPIC
##608
737
temporis
##15000
formulará
##viamente
##270
taken
Castel
##koz
7207
##LOW
##quinona
integration
guarni
MAUR
cargamento
gaseosa
##ÁNICOS
homogéneo
socioeconómico
Circun
tubercul
visitantes
agitador
CIRC
parásitos
affaires
816
Rua
SED
SBS
Test
Wet
bb
##ncia
##OLA
##xil
##jadas
##wes
dedu
##tiazol
##sts
##ueble
##dist
suav
esbo
##lamina
CEPOL
1907
##quina
##quilo
disodio
##acético
1017
pautas
państwa
##eph
casa
cocción
Consideraciones
defina
cosechas
sustituya
##atitis
##123
comparando
asignen
Político
Prunus
589
749
correctivas
daría
aportadas
Modificado
acordes
candidatura
cruzar
Formulario
cuantitativamente
Guar
##éptima
renovarse
coordinados
cesado
CCP
guardar
juez
recíprocos
##copios
homogéneos
inexistencia
reproducibilidad
dispensar
Produk
entorchados
académico
necrosis
subsanar
απόφαση
Dimensiones
##stadt
náuticas
semiblanqueado
ATA
L512
Uvas
aba
dors
##áñ
##uña
##ZED
##RAS
deform
apag
1267
DEG
1100
aristas
##chia
Acetato
1406
##noots
##álcico
declarará
Copol
##voros
permitiera
identificadores
543
ESB
chem
afg
Alemana
##aglutin
verificó
taiw
recurrirse
Guyana
MEDI
bridas
##cheid
ocupen
##ραμ
Buques
Balance
##ODOS
disfruten
Bolonia
habilitada
Bundesministerium
Factores
juzgar
divergentes
Frutos
Local
Embalaje
débiles
esterilización
catadióptricos
covered
cronológico
cuaternario
##ország
##nootschap
Cero
Frig
LUC
OEDT
Pse
T000
pä
tute
##ámb
##ných
##Equ
##äär
##RC
decol
delim
alba
escar
acent
##late
perm
##iven
##lear
mention
2917
##rafía
actuado
##atie
seguidos
profunda
Auto
EEG
6211
546
##ianas
576
0711
##191
fishing
causadas
molé
##333
acuáticas
##ieles
turco
##IGER
στη
intracomunitaria
constataciones
##ándole
agujas
Representantes
##ομέν
circulares
plasm
transmitan
transfusión
##ércoles
issued
SNCM
devueltos
Mittel
mamparo
fumar
brazo
felici
Stockholm
marroquíes
LEGISLA
Timor
without
micrófono
HYDROLYZED
microdiscos
clemencia
Bea
Eks
Niger
Od
Rib
RAE
SIDE
Vent
ramo
Česk
##ière
##jets
##kki
##TACIÓN
##íç
##UU
##YR
##ële
##θούν
##arti
##adio
##iner
proa
cuantías
desvi
##etaria
merced
carteras
demers
transportan
2000239
##azgo
mencione
Ali
trid
taller
##endientemente
agil
quo
ajustándose
3808
##407
sancionada
embo
8540
8528
abrió
##ianos
firmaron
titre
estimen
Amer
spé
suministrará
##32000
descartar
prorrogará
efforts
Presidentes
aleados
accionar
##94005
aclaración
explosivo
Behör
##MIENTOS
laminadas
Muy
satisfarán
Órganos
##estimm
settore
##EDADES
automatizado
Indemnización
środki
σχετ
additional
UTILIZ
Muchos
Independientemente
SUBVENCIÓN
volvió
TRABAJO
2000239ES
3H
Droga
Metil
SAR
TUR
With
czy
ró
sécurité
vu
##wania
##λίου
##ône
enzo
altitud
alude
ana
debió
##acja
Enten
20°
2042
##gat
utilizándose
demarc
transportada
##iete
publiquen
responsabil
trabajados
limitarán
permanezca
484
488
libera
ordenamientos
##604
##metros
reservar
redund
##359
compañia
##187
acogidos
ofrecerse
##478
colaborarán
##olucion
alegando
renovada
entregarán
subconting
resolverse
##steun
##butil
επιστ
concernant
Contribu
inmovilizado
phosph
measure
Visibilidad
Universidad
verticalmente
catálogos
gemäß
Difusión
inevitable
tropicales
tacógrafo
parlamentarias
rendelet
##árragos
Daphne
prerrogativas
tembladera
DUMPING
Lyon
MIC
Naran
Pendiente
ROM
ZV
culo
heb
io
pales
rat
##temente
##ful
##lios
##HAM
##bino
##hul
##óticos
##ität
##tere
##ols
ex85
acetil
1956
predetermin
productivos
##extrina
##URE
calendarios
##OSPH
continuos
simulación
Resources
usual
inmediatas
671
amend
longitudinales
precisen
goza
##cineración
08061010
suministradas
zou
asuma
sexies
ascensor
cofinanciadas
cambie
mostaza
intenciones
Shet
##ECHA
ordinaria
Evrop
sospechosas
économie
Colorante
odontología
ambicioso
Proseguir
recinto
même
auspicios
Ljubljana
cómp
Jamaica
Ais
FABR
Syn
Ukra
erosión
pacto
##eure
##litz
##HC
##ólico
##έα
pareja
##tuksen
##olag
##takt
act
conscientes
arena
2082
##bridge
secar
condicion
validado
refund
resultó
20012
##TIONAL
documents
iniciarán
481
Exchange
626
evaluada
ES5
668
suceso
Luz
##AMENTE
liberarse
contrô
##tóp
##curr
gozar
Administration
desempeñen
finaliza
Building
OCM
soportados
CZK
seminario
##jąc
rigurosa
excelente
ascendía
GENERALIDADES
innecesaria
rígida
pulverización
embarco
adeudados
Fiscalidad
England
άρθρο
Incluso
enzoótica
811
Ured
eE
lex
zm
##zazione
##N1
##óculo
##TF
elig
parado
Comissão
##edet
##ductor
##qua
##iato
prema
lodo
##usse
regering
cocidos
##mium
##bato
contraer
può
##ICAR
REFI
CONTIN
##ANZ
##vation
transformarse
identificador
Polo
conservantes
584
633
##undhe
respetará
subsector
correctos
surtidos
produt
confirmarse
logrados
TRIBUN
herstructurering
reproces
Royal
##keting
actualizadas
deceleración
##lines
revestido
tarificación
Artes
supeditar
##éfér
retroac
acelerada
desconoci
##ournal
Shar
##straße
inmuno
prohíba
dalle
prévo
metropolit
infecciosas
asistido
organolépticas
REACTIVOS
prototipo
quinquenal
account
##licerol
Dominicana
cartuchos
##θμι
##Indemnizaciones
enfriamiento
brasile
liderazgo
triplicado
##ípedos
##ituallamiento
infrarro
Aun
Judi
cíc
gira
kas
rique
δαν
##tter
##kol
##kil
##ības
##χρι
##icano
induci
##amenta
remedio
compor
suya
##tivity
ex8
Estamp
company
dice
podsta
concorr
##ensk
benef
jurid
compris
granular
553
invertebrados
estratific
examinando
##352
##233
745
##156
elimina
contrariamente
##illet
##UCC
micron
dilación
##489
influye
consignado
consignadas
Equip
Colabor
torio
gestionan
Aparato
zak
alcanzan
omfat
##issement
CL50
3204
absolutamente
Regionale
obstaculice
ADMINISTRATIVO
ascendente
impregnación
Hamburgo
##cindir
provided
higiénicas
αναδιά
##éndolo
yodo
Indique
prejuzga
INMUEBLES
reivindic
αγορά
Shetland
Alo
HUN
Jac
Mat
Meas
hueso
kJ
nemato
venda
##aal
##OE
##har
##jenas
##äch
##ιν
##øben
comando
algas
##imida
resal
Enrasar
paises
coque
COORD
1327
mantuvieron
##sak
##ército
originalmente
##ULTURA
instalará
mejoren
explotados
tiro
COMUNES
876
adaptarán
emig
dobl
meth
842
Convention
518
mm2
centralizado
775
681
616
licitar
##valo
multina
##159
economy
pagaderos
surtido
produjeron
Texas
ocasional
apoyado
expirarán
secretos
##nings
tradiciones
metileno
enseñanzas
otorgará
percibirán
reembolsables
corresponderán
Holding
musicales
przyzn
cumbre
permanecerán
décadas
petrolíferos
NordLB
##química
rusas
esforzarán
Unternehmen
ελληνικές
ventajosa
barnices
pirotécnicos
indeterminado
Recuperación
APÉNDICE
##ámbulo
FOR
Niza
Ram
gla
tapas
wine
ως
##nac
##ei
##xiv
##σκ
eludir
parlamentos
exerci
##tricas
##lago
##umulación
obtuvieron
120000
1500000
topes
refinar
2103
COMISION
inseguridad
plut
fuertemente
##tricamente
759
estudiando
5509
metas
6110
575
##vese
produciendo
isom
excluirán
Media
adjudicadora
Administraciones
renovado
huma
IFP
estabilizado
##ούς
intensivo
radiactiva
almidones
Taric
distinguirse
afirmó
Rodante
pantalón
abanico
PHARE
miércoles
μέχρι
nitrogen
instauran
##CRIPCIONES
LÍM
présente
Bissau
inaceptables
mililitros
Lomé
auxílio
##ticultura
comorenses
concienciación
Pregunta
Laboratoire
oligoel
αναδιάρθρω
Cd
Gir
PPC
Wall
adu
ij
kredi
##No
##kö
##ич
##onic
##ady
##idona
serio
aparezcan
diclor
marrón
financieramente
evalúe
points
##205
958
Diámetro
Adquisición
explotadores
4202
limited
5515
Interpol
favorezcan
Obras
545
reconocimientos
guard
583
sucesión
enfermos
##crita
conductas
confirmará
NOTAS
mutuas
terminados
Tele
reconocerse
AST
insertarán
eliminan
retroactivo
arrendadas
Gotemb
EXPED
abrevi
GMES
##ISTENCIA
Opción
innecesarios
##irtschafts
sencillos
##spól
##ombras
empezó
Europä
SISTEMAS
##οδο
encefalopatía
auriculares
canadiense
Oleícola
fisionables
##tiebolag
également
companies
Gotemburgo
Berg
FP
Fium
Hill
Junto
République
TAL
Zambia
eks
own
ron
silo
ðñï
##yto
##uti
##gmas
##éthyl
##pio
##ïý
##ìá
##allas
##ecían
Lavar
matem
pav
1105
arcil
##tudy
##OSA
pesas
correspond
mutá
beneficiari
ejecutarán
CONTRA
8542
##lium
facto
factur
534
crin
armonioso
##221
##228
proponía
##IMONIUM
##39000
precon
Autorizada
completados
transferirse
muestreos
mezcladas
preventivo
viveros
december
##dział
ataque
otorgue
abordarse
motivadas
guarden
conectar
reembolsará
fosfatos
farmacéuticas
fluoruro
Education
SEGUN
alcalino
décembre
precipitados
[...]
